memory_initialization_radix=10;
memory_initialization_vector=
-20,
-33,
-69,
41,
11,
-21,
64,
-76,
-52,
12,
-54,
12,
35,
7,
43,
7,
-41,
56,
52,
65,
36,
-48,
-6,
-62,
-45,
-54,
35,
-14,
15,
-45,
-17,
12,
-42,
-11,
8,
36,
56,
-42,
-27,
-7,
-55,
-81,
-93,
-66,
29,
-13,
1,
-39,
-13,
22,
-45,
-20,
-36,
-99,
10,
79,
-48,
42,
-6,
-10,
-35,
34,
6,
10,
9,
-76,
-10,
-32,
-6,
11,
15,
-51,
-4,
-78,
-45,
-56,
-66,
-3,
-30,
-44,
-15,
46,
36,
-66,
-28,
5,
17,
25,
12,
-20,
16,
44,
-51,
-36,
-49,
-36,
-60,
32,
82,
-35,
-2,
-54,
-29,
28,
0,
-28,
-80,
-90,
3,
-107,
-88,
-48,
-93,
-68,
-32,
-15,
29,
34,
46,
-55,
-1,
-63,
-34,
-33,
-88,
4,
1,
-5,
38,
13,
57,
-69,
79,
-35,
-55,
-42,
-77,
-33,
-38,
-50,
-44,
-57,
21,
44,
59,
-55,
-1,
-42,
-61,
-3,
61,
36,
15,
80,
-16,
-15,
-39,
-8,
35,
-42,
-18,
-6,
10,
2,
-23,
-43,
-50,
75,
25,
59,
59,
17,
54,
16,
25,
-14,
-24,
4,
4,
42,
51,
-60,
9,
-20,
33,
24,
2,
25,
40,
-45,
-4,
-21,
39,
27,
-57,
-32,
39,
67,
-10,
-18,
58,
9,
19,
-36,
54,
39,
12,
52,
-40,
45,
4,
58,
-51,
80,
-71,
59,
68,
66,
10,
-1,
91,
14,
51,
-52,
65,
61,
54,
-3,
43,
54,
63,
-5,
48,
34,
40,
35,
-39,
6,
-17,
-26,
-69,
-27,
-35,
19,
19,
-41,
-5,
-19,
-4,
-47,
19,
-44,
3,
46,
-17,
33,
69,
-33,
64,
-30,
66,
35,
-53,
63,
51,
-39,
60,
24,
-1,
38,
53,
16,
-33,
-24,
28,
-12,
13,
2,
-60,
38,
48,
-28,
-10,
49,
20,
-67,
-24,
40,
29,
37,
-34,
-50,
10,
-62,
-25,
-55,
34,
12,
-30,
12,
56,
-20,
29,
-37,
-45,
39,
66,
-33,
41,
63,
60,
-16,
47,
-5,
42,
-35,
-3,
-64,
60,
31,
55,
-28,
19,
-4,
9,
-46,
-37,
11,
51,
47,
-30,
-9,
-63,
67,
-39,
-6,
33,
34,
83,
29,
11,
35,
-55,
-15,
-66,
-40,
48,
-41,
-10,
47,
-17,
-38,
29,
-39,
-4,
48,
36,
-20,
33,
90,
-14,
23,
-49,
-50,
-44,
54,
61,
-34,
-13,
-53,
42,
22,
35,
-73,
-20,
-43,
-22,
-4,
50,
32,
-13,
-70,
31,
45,
-20,
-53,
-21,
-6,
61,
12,
12,
44,
-26,
36,
4,
39,
3,
1,
-1,
-13,
20,
59,
-59,
-47,
30,
1,
-54,
24,
31,
32,
-53,
-3,
23,
66,
-61,
8,
-20,
-25,
-18,
19,
43,
2,
45,
-4,
-12,
8,
-20,
-2,
39,
26,
11,
-68,
-56,
-29,
-73,
-53,
-42,
-40,
-23,
-32,
27,
-21,
6,
16,
-75,
-39,
-2,
25,
9,
-12,
24,
54,
55,
-28,
1,
-23,
-35,
55,
-25,
-18,
-11,
-48,
48,
24,
18,
38,
22,
-31,
-57,
-38,
-8,
-47,
28,
51,
30,
10,
-5,
-3,
-56,
-14,
-74,
-60,
-17,
-5,
6,
31,
12,
-19,
41,
50,
36,
-15,
-50,
-36,
-14,
81,
73,
-19,
-2,
-65,
-31,
46,
2,
-39,
-51,
67,
58,
19,
-2,
-24,
13,
19,
74,
60,
-27,
-56,
-28,
-61,
-66,
30,
-64,
-5,
23,
34,
-3,
25,
70,
4,
42,
45,
-61,
-76,
-37,
0,
31,
-23,
40,
49,
-43,
-11,
55,
-21,
-3,
36,
8,
13,
33,
56,
-13,
-55,
1,
-55,
-3,
25,
19,
1,
-40,
32,
-46,
83,
-26,
-41,
14,
-55,
-5,
64,
-5,
2,
-66,
-53,
37,
-32,
17,
-52,
-77,
43,
31,
-55,
-11,
32,
13,
-31,
21,
13,
37,
43,
-28,
2,
17,
-21,
-56,
-39,
3,
48,
52,
52,
31,
10,
23,
-27,
15,
-9,
-9,
35,
16,
-4,
-76,
1,
-21,
-40,
-51,
51,
22,
-30,
26,
-52,
-14,
30,
9,
-51,
-49,
34,
14,
33,
14,
39,
1,
-62,
38,
7,
72,
-5,
-26,
4,
-15,
7,
55,
20,
-32,
22,
70,
51,
-11,
-40,
9,
-20,
-25,
-49,
51,
49,
-16,
-13,
37,
20,
-65,
-20,
45,
52,
48,
55,
23,
-39,
8,
-12,
15,
-16,
-14,
16,
74,
30,
32,
-1,
-53,
-64,
69,
-48,
-21,
-18,
69,
50,
92,
4,
5,
-16,
58,
6,
4,
13,
41,
-36,
-53,
-47,
20,
37,
-49,
-36,
46,
-62,
36,
57,
29,
-45,
9,
8,
67,
5,
3,
44,
31,
13,
-14,
0,
-5,
64,
-48,
-16,
-59,
17,
-75,
-16,
-17,
53,
53,
-49,
58,
32,
52,
6,
-4,
26,
-55,
1,
1,
12,
56,
-12,
29,
84,
50,
60,
-77,
-47,
-6,
44,
51,
2,
54,
38,
-8,
-46,
6,
23,
11,
-38,
-26,
-17,
30,
-81,
-53,
13,
16,
34,
16,
-6,
-17,
52,
-4,
47,
-72,
44,
-30,
62,
36,
39,
-55,
4,
-32,
51,
-14,
79,
-53,
14,
36,
-53,
51,
17,
-53,
74,
8,
-19,
6,
30,
15,
7,
-25,
15,
-61,
27,
-71,
-17,
13,
48,
-8,
-17,
-52,
-54,
4,
45,
113,
-45,
30,
-72,
-15,
4,
29,
-49,
9,
-45,
-20,
68,
-29,
66,
-38,
13,
-45,
21,
48,
5,
67,
-67,
24,
64,
14,
52,
-62,
12,
76,
3,
-32,
-62,
-56,
8,
6,
-92,
-32,
-57,
33,
42,
44,
-68,
69,
-55,
-52,
53,
-51,
-38,
-47,
22,
52,
95,
24,
9,
-2,
31,
-18,
-46,
75,
-57,
22,
-67,
-58,
-35,
24,
57,
-87,
-6,
4,
13,
-60,
-25,
-9,
-28,
55,
-57,
-72,
40,
48,
-43,
1,
-35,
52,
-38,
40,
5,
27,
14,
-54,
13,
-7,
14,
55,
10,
21,
49,
-28,
-56,
31,
43,
-36,
49,
-14,
-12,
-30,
61,
61,
30,
19,
74,
-59,
74,
-19,
-15,
15,
31,
-33,
-39,
11,
55,
13,
24,
-53,
-26,
41,
18,
50,
22,
22,
-31,
-24,
-64,
30,
-14,
41,
51,
-72,
-8,
-77,
35,
39,
41,
-9,
3,
63,
-27,
-61,
-47,
36,
38,
40,
43,
6,
-36,
35,
11,
39,
51,
42,
-18,
7,
-2,
61,
-61,
-1,
42,
-26,
1,
51,
-3,
-30,
21,
37,
34,
-19,
25,
-32,
86,
36,
-19,
-32,
-67,
38,
-2,
-76,
19,
31,
-42,
31,
-64,
51,
51,
23,
-7,
-39,
3,
-8,
2,
-79,
-71,
-4,
11,
18,
14,
-37,
13,
65,
-32,
-6,
9,
32,
-70,
22,
-62,
-34,
47,
-5,
18,
32,
64,
-24,
-18,
-34,
-47,
-83,
4,
-19,
11,
-37,
-44,
41,
-13,
-43,
66,
9,
57,
18,
-2,
-25,
31,
40,
40,
-26,
-20,
-40,
27,
59,
-6,
3,
-37,
40,
-44,
48,
40,
9,
-40,
31,
0,
-8,
-46,
-20,
-42,
-60,
-30,
12,
-25,
51,
-42,
60,
57,
3,
4,
16,
-6,
-2,
55,
-34,
-48,
41,
17,
-62,
60,
-35,
-88,
-54,
33,
7,
-21,
-18,
-3,
-7,
-2,
-26,
-63,
8,
-85,
-36,
31,
24,
-40,
48,
15,
18,
-46,
27,
-78,
11,
48,
-20,
63,
80,
-62,
18,
-51,
19,
67,
52,
-24,
-65,
-79,
-7,
-26,
72,
37,
41,
-61,
33,
-13,
27,
48,
49,
-15,
-35,
-83,
40,
-32,
7,
73,
-49,
36,
26,
-62,
-27,
-39,
-53,
49,
-23,
10,
-49,
-28,
-33,
-31,
54,
13,
40,
49,
10,
-11,
-49,
47,
-45,
10,
-73,
-19,
46,
6,
28,
-32,
45,
-65,
-24,
-39,
-61,
-74,
3,
-28,
-41,
-27,
47,
-36,
-11,
5,
37,
-31,
33,
-47,
-59,
-16,
-18,
56,
-58,
-29,
-40,
33,
-34,
20,
31,
-53,
-80,
19,
-26,
1,
11,
-23,
15,
54,
53,
70,
-19,
-74,
13,
-29,
25,
-60,
25,
28,
46,
-17,
-69,
-79,
21,
-35,
22,
50,
-49,
2,
2,
50,
-36,
-11,
-8,
-10,
-34,
-23,
27,
11,
14,
30,
-93,
-70,
11,
-2,
-66,
-37,
56,
47,
60,
69,
-11,
65,
-12,
-25,
-75,
-43,
-51,
-49,
61,
-56,
58,
23,
62,
-58,
17,
80,
49,
-92,
-6,
-80,
-62,
-2,
54,
80,
8,
1,
44,
-21,
-57,
64,
-39,
25,
4,
-65,
-100,
73,
71,
57,
9,
13,
-73,
-27,
11,
-83,
-12,
49,
27,
40,
-56,
-53,
25,
25,
54,
53,
-26,
-58,
-82,
66,
-56,
6,
-19,
51,
17,
-40,
24,
-79,
5,
-8,
69,
5,
54,
-36,
-56,
-57,
32,
-61,
32,
-86,
-59,
37,
-54,
-29,
-3,
12,
-2,
-23,
-77,
20,
34,
27,
-26,
-37,
-28,
-5,
-20,
-18,
-43,
55,
-30,
-16,
30,
51,
5,
-104,
-66,
-56,
29,
48,
-60,
-3,
41,
-14,
-76,
51,
-26,
43,
-47,
35,
13,
-64,
-35,
-2,
64,
-24,
-21,
54,
4,
33,
-28,
37,
-8,
61,
-2,
-29,
-33,
-80,
-39,
16,
-60,
-6,
44,
27,
-88,
-12,
-46,
-48,
40,
-5,
62,
27,
20,
-31,
-61,
-90,
28,
-46,
-3,
-9,
-85,
-43,
6,
-49,
-14,
27,
33,
8,
63,
52,
64,
31,
-31,
-23,
-13,
55,
-43,
-53,
-44,
15,
37,
-19,
55,
47,
-25,
-63,
55,
-33,
15,
-58,
-20,
71,
-34,
1,
-22,
-22,
56,
-59,
-35,
-61,
-50,
-10,
25,
-21,
-73,
36,
-37,
-42,
-21,
58,
-6,
-8,
-50,
45,
-73,
-23,
-21,
4,
42,
-52,
-4,
-3,
-27,
71,
38,
75,
-48,
-90,
8,
-58,
-4,
3,
64,
44,
-30,
-15,
-87,
-59,
38,
-52,
-2,
25,
40,
26,
15,
74,
59,
-21,
-66,
-36,
-73,
-37,
-46,
-58,
-2,
12,
-2,
43,
-33,
-91,
31,
-90,
-18,
67,
-56,
-64,
13,
-61,
27,
5,
-21,
-69,
30,
15,
-1,
-25,
-59,
-55,
-8,
21,
-12,
-24,
24,
-53,
-36,
-24,
75,
-4,
-47,
-88,
-42,
-10,
16,
-1,
68,
53,
-36,
-47,
49,
12,
-26,
-17,
-64,
-74,
-44,
-35,
1,
23,
-47,
45,
-116,
0,
-19,
-4,
-7,
-40,
7,
66,
46,
62,
-27,
-29,
17,
1,
-9,
7,
-19,
6,
-21,
-62,
9,
-32,
37,
43,
11,
44,
15,
30,
-31,
-57,
68,
-40,
-27,
34,
-46,
10,
11,
38,
37,
35,
36,
39,
13,
-23,
9,
51,
1,
-52,
61,
67,
12,
-35,
26,
17,
-37,
35,
-24,
-61,
-77,
61,
10,
28,
65,
-26,
-13,
-48,
0,
-46,
17,
-65,
28,
-12,
17,
-31,
29,
-19,
68,
51,
-31,
-6,
-38,
-3,
-18,
47,
35,
25,
-14,
-8,
8,
11,
-8,
52,
-66,
-7,
-68,
38,
49,
27,
59,
70,
-60,
22,
-55,
-53,
25,
-4,
88,
67,
-48,
21,
-37,
-11,
-48,
-25,
23,
31,
-1,
52,
70,
29,
64,
-18,
0,
14,
53,
-65,
-72,
-51,
32,
75,
57,
48,
63,
61,
-53,
-64,
-26,
10,
29,
30,
-63,
-16,
19,
-55,
-17,
-53,
11,
-18,
-65,
-59,
-79,
-45,
-84,
42,
11,
11,
-61,
-60,
43,
7,
47,
-17,
-13,
28,
37,
-57,
33,
36,
-23,
37,
22,
-55,
-70,
-33,
10,
42,
69,
43,
-42,
1,
-19,
22,
45,
5,
6,
17,
20,
-28,
11,
58,
72,
77,
-8,
7,
-5,
35,
13,
-2,
-55,
-2,
-3,
62,
12,
-58,
-8,
-55,
-77,
-11,
-68,
41,
-55,
0,
39,
39,
60,
-61,
-26,
-20,
-30,
-34,
-55,
24,
17,
65,
7,
22,
-46,
57,
18,
7,
36,
-43,
54,
62,
-32,
17,
37,
70,
5,
-60,
-25,
-47,
-16,
-2,
2,
-40,
-18,
-30,
47,
-35,
11,
-43,
35,
-4,
-30,
21,
14,
-76,
40,
30,
-25,
41,
27,
85,
-21,
-51,
-39,
-34,
-7,
42,
25,
33,
35,
-3,
-40,
50,
25,
-57,
-71,
44,
-81,
-6,
-43,
-46,
-24,
41,
-16,
-27,
-76,
54,
-14,
10,
-50,
30,
-22,
21,
-70,
-48,
42,
14,
-1,
56,
5,
88,
77,
-58,
-64,
-8,
-3,
-34,
45,
16,
-34,
-70,
-82,
-4,
71,
-69,
19,
-59,
-59,
0,
46,
63,
-65,
-72,
50,
-29,
-60,
40,
37,
51,
-14,
-36,
-74,
-27,
-40,
-39,
69,
34,
14,
64,
-61,
23,
47,
23,
70,
42,
59,
-47,
-50,
56,
-44,
-36,
64,
25,
-47,
59,
-3,
-1,
-48,
53,
54,
45,
34,
37,
10,
57,
-11,
26,
-1,
-59,
-32,
43,
-15,
21,
-26,
-63,
43,
44,
54,
8,
73,
41,
-45,
-30,
-38,
-13,
50,
-83,
-24,
0,
-5,
-32,
18,
-43,
-51,
23,
-58,
47,
-25,
-8,
-37,
1,
-22,
90,
-37,
-23,
-63,
55,
66,
31,
-32,
-45,
11,
47,
48,
-44,
61,
55,
50,
68,
-55,
-40,
35,
-6,
56,
43,
61,
54,
-50,
48,
-29,
-2,
-10,
43,
48,
72,
-5,
-37,
-9,
-59,
-55,
-17,
-2,
29,
31,
-69,
52,
36,
-27,
15,
-24,
-18,
39,
-50,
28,
-43,
-34,
34,
39,
-14,
36,
-25,
59,
71,
40,
61,
13,
32,
43,
-28,
-48,
-46,
25,
-60,
59,
11,
-50,
-65,
30,
28,
-62,
-84,
0,
64,
-73,
-58,
56,
-49,
36,
-36,
-11,
14,
44,
-85,
-33,
36,
27,
5,
-40,
34,
25,
-22,
44,
-18,
-63,
-106,
-61,
8,
-46,
-23,
-7,
43,
46,
24,
40,
-33,
-85,
-34,
30,
-55,
-59,
23,
-32,
-73,
-69,
-15,
30,
-28,
-76,
12,
-37,
26,
-3,
-14,
8,
-2,
5,
-111,
-116,
29,
5,
15,
49,
37,
8,
44,
-32,
41,
-32,
15,
-31,
-9,
-55,
-16,
-21,
-58,
65,
58,
20,
26,
-2,
-35,
4,
-19,
30,
-1,
13,
-29,
4,
-75,
-27,
3,
8,
-44,
44,
11,
-69,
45,
-30,
41,
-36,
74,
34,
49,
26,
23,
31,
-42,
11,
-60,
68,
-44,
-6,
-65,
32,
51,
-29,
-43,
-5,
64,
-18,
17,
-26,
-32,
-75,
9,
-2,
-4,
-68,
-25,
42,
21,
50,
-25,
-67,
6,
-62,
-25,
-61,
-48,
29,
7,
4,
-14,
-73,
-16,
22,
-14,
-16,
21,
15,
-30,
-66,
-66,
-1,
10,
15,
-31,
-3,
33,
-27,
-17,
-47,
18,
15,
-36,
48,
-17,
-36,
60,
46,
-56,
11,
-38,
50,
20,
70,
40,
-12,
-51,
84,
-17,
-6,
-60,
40,
46,
-60,
-59,
72,
-42,
49,
-51,
-48,
-5,
18,
-21,
33,
-26,
-19,
12,
-4,
19,
-71,
-55,
-6,
44,
-70,
22,
-67,
-36,
-24,
-6,
4,
-36,
9,
0,
-57,
-50,
47,
-25,
34,
-8,
-63,
-41,
55,
74,
34,
-5,
24,
48,
-41,
14,
58,
28,
18,
48,
-18,
-41,
-49,
72,
-42,
25,
-38,
-22,
-64,
17,
35,
-45,
-30,
-72,
15,
6,
-88,
-18,
58,
72,
60,
-2;
