memory_initialization_radix=10;
memory_initialization_vector=
19,
-28,
47,
41,
-33,
15,
-26,
4,
45,
33,
49,
-12,
-16,
-33,
-19,
76,
-19,
88,
17,
62,
-41,
-63,
-50,
-9,
34,
-56,
-49,
55,
-55,
-21,
68,
-1,
29,
16,
-49,
7,
23,
47,
51,
-52,
32,
38,
-21,
-44,
55,
-45,
64,
52,
1,
50,
-52,
88,
71,
90,
-5,
3,
-71,
-19,
-20,
-50,
-47,
48,
58,
70,
21,
-37,
-40,
-66,
-53,
-99,
-47,
-54,
53,
6,
-2,
8,
54,
-46,
3,
3,
65,
-20,
-49,
30,
51,
41,
23,
-45,
27,
-53,
73,
45,
9,
29,
-46,
-10,
21,
54,
24,
25,
-47,
-52,
3,
86,
37,
-2,
1,
7,
-32,
0,
-75,
-24,
14,
12,
37,
-33,
-43,
-64,
18,
-48,
-50,
19,
-80,
21,
32,
-45,
-2,
80,
35,
59,
35,
21,
-31,
51,
-44,
-13,
-31,
27,
-1,
56,
12,
56,
33,
-76,
-36,
72,
52,
31,
72,
-11,
-45,
-55,
39,
39,
-38,
54,
54,
-43,
34,
-27,
77,
29,
48,
-2,
66,
70,
-6,
75,
82,
40,
66,
75,
31,
66,
67,
-49,
-76,
-2,
7,
80,
-27,
34,
32,
-19,
63,
37,
-46,
-86,
-50,
-3,
-64,
23,
-28,
-53,
79,
71,
0,
-56,
-32,
46,
-33,
-61,
41,
57,
-5,
70,
-29,
26,
28,
12,
56,
25,
-22,
-7,
48,
29,
-32,
-30,
-6,
-40,
74,
-37,
-32,
56,
12,
-51,
-14,
44,
44,
26,
-48,
-52,
54,
17,
31,
67,
22,
40,
74,
24,
-55,
-45,
3,
76,
-60,
-15,
52,
58,
-40,
47,
-6,
-24,
-3,
-79,
-44,
-21,
5,
24,
69,
-19,
31,
-40,
-7,
8,
61,
30,
-63,
-46,
-19,
-63,
-48,
-23,
2,
23,
-42,
69,
-49,
-83,
65,
74,
-54,
-58,
-87,
2,
9,
-64,
27,
52,
36,
11,
55,
65,
-33,
-31,
35,
36,
36,
54,
14,
93,
22,
4,
-47,
-35,
-19,
-9,
-21,
36,
-5,
7,
-53,
-20,
-62,
-10,
4,
36,
69,
-28,
-23,
3,
-10,
-44,
-18,
14,
27,
36,
22,
-17,
-15,
13,
-28,
49,
-52,
11,
-13,
-28,
14,
-36,
62,
-31,
44,
11,
-27,
-3,
15,
48,
-64,
63,
-24,
-24,
34,
-10,
69,
27,
45,
38,
20,
12,
42,
14,
34,
29,
3,
36,
-17,
-46,
20,
-51,
33,
27,
-61,
58,
28,
-26,
39,
26,
-44,
-10,
-25,
-28,
40,
-13,
43,
36,
-60,
-52,
-4,
68,
-10,
-20,
32,
-41,
-48,
-5,
6,
-30,
45,
-18,
3,
35,
59,
43,
14,
-19,
25,
-39,
-41,
-80,
57,
-7,
-46,
25,
-25,
55,
-63,
-66,
41,
-64,
-12,
20,
48,
49,
-19,
-53,
-71,
45,
-55,
4,
38,
34,
-53,
21,
1,
-52,
7,
-22,
55,
45,
-33,
-25,
-21,
65,
40,
-43,
70,
63,
1,
-19,
-41,
-9,
-65,
-8,
55,
48,
31,
14,
6,
-61,
32,
-92,
-1,
-45,
-35,
-30,
-59,
57,
1,
56,
-77,
-31,
-18,
-68,
-25,
-82,
-68,
-26,
18,
-69,
-47,
29,
28,
19,
-56,
-10,
32,
9,
-74,
61,
-56,
-44,
40,
-44,
-61,
-57,
-12,
17,
51,
-54,
12,
-9,
14,
41,
53,
-55,
42,
-43,
-69,
-42,
-64,
23,
-42,
65,
42,
-10,
30,
31,
-24,
-38,
-7,
-29,
17,
63,
69,
-28,
34,
-3,
16,
-19,
-35,
-57,
45,
-35,
10,
2,
-30,
-19,
13,
7,
-32,
-33,
-64,
-33,
-23,
28,
26,
-59,
62,
58,
-29,
-10,
10,
-19,
7,
10,
-75,
78,
51,
-4,
-35,
59,
-29,
-11,
-70,
-36,
-61,
-23,
-53,
-28,
50,
-12,
-32,
-33,
-31,
-3,
61,
40,
28,
36,
82,
-22,
-10,
-20,
14,
15,
-65,
25,
40,
26,
0,
59,
-38,
-13,
40,
-61,
-13,
-93,
-32,
-1,
50,
-55,
78,
36,
-17,
48,
-1,
-70,
-72,
-50,
-101,
29,
78,
-52,
-40,
-56,
47,
-10,
-20,
5,
-30,
-18,
-98,
-10,
-39,
1,
58,
-53,
-14,
-47,
46,
21,
26,
-38,
61,
8,
55,
86,
73,
83,
-6,
41,
-19,
52,
-17,
8,
-61,
15,
-29,
11,
-42,
-27,
-16,
-1,
-41,
48,
-20,
-52,
58,
73,
12,
52,
-46,
-83,
-12,
5,
-6,
56,
-7,
80,
-19,
-18,
-61,
11,
-67,
-67,
-26,
9,
35,
-29,
67,
-58,
31,
30,
-44,
-18,
-64,
-68,
-51,
-20,
-9,
1,
52,
-78,
-70,
3,
-51,
36,
18,
-3,
28,
60,
-3,
12,
15,
5,
-70,
35,
-1,
48,
2,
61,
42,
-52,
72,
-60,
-61,
32,
-13,
-68,
35,
4,
-59,
42,
-3,
-10,
-49,
82,
89,
-28,
26,
-29,
-43,
-50,
65,
4,
18,
51,
50,
19,
93,
3,
-47,
-3,
29,
20,
-49,
-47,
68,
-16,
37,
8,
9,
32,
-4,
8,
-57,
76,
-47,
-23,
-48,
-70,
-24,
29,
-10,
-14,
-38,
17,
10,
-1,
48,
-34,
26,
54,
56,
-42,
83,
5,
-64,
-38,
22,
-37,
2,
29,
40,
26,
-18,
-15,
69,
-81,
-16,
-8,
26,
82,
-58,
-34,
44,
73,
-31,
32,
62,
50,
-23,
-35,
33,
-37,
-55,
12,
23,
-15,
-22,
66,
38,
-9,
-5,
-51,
42,
41,
21,
13,
-72,
9,
-33,
3,
3,
-2,
-13,
32,
76,
9,
30,
28,
-77,
-52,
-67,
6,
-3,
85,
-28,
-41,
55,
-69,
-21,
-32,
65,
-60,
65,
-27,
64,
-8,
-1,
-35,
69,
35,
-25,
-57,
-72,
7,
69,
-54,
-49,
18,
-43,
-35,
-51,
-55,
-39,
-46,
-50,
-27,
5,
-38,
22,
73,
58,
77,
-9,
4,
47,
-18,
52,
25,
6,
33,
25,
-6,
-5,
16,
71,
-47,
-36,
29,
-48,
31,
-21,
62,
43,
-55,
4,
-48,
-34,
51,
-51,
-7,
56,
-35,
35,
-62,
-73,
1,
34,
15,
-20,
9,
13,
-2,
51,
-15,
-13,
-28,
15,
12,
5,
-62,
-63,
-76,
-48,
-49,
-13,
-46,
-13,
-9,
-18,
-28,
50,
39,
40,
-45,
10,
3,
-37,
-27,
49,
67,
43,
-67,
-51,
-13,
80,
-31,
37,
45,
-50,
71,
67,
-12,
59,
-3,
-47,
32,
-22,
33,
41,
64,
22,
51,
-16,
34,
63,
33,
-14,
45,
33,
-84,
1,
-74,
-60,
-15,
-8,
34,
74,
8,
20,
31,
18,
57,
-88,
-85,
34,
-24,
-48,
-50,
4,
50,
37,
-49,
-13,
40,
53,
-19,
67,
-57,
-3,
-10,
-1,
-62,
-72,
-25,
-35,
-75,
30,
12,
-51,
58,
75,
90,
33,
28,
69,
53,
27,
-19,
41,
-31,
61,
37,
34,
-44,
38,
-45,
-68,
66,
45,
10,
-55,
49,
20,
1,
-41,
59,
70,
54,
21,
-56,
22,
71,
-43,
17,
-26,
-13,
32,
-53,
-44,
-3,
-75,
-42,
-25,
-14,
59,
-15,
50,
-38,
-49,
-59,
-48,
-82,
-82,
15,
-79,
31,
-19,
-65,
46,
-83,
48,
-71,
9,
-50,
10,
9,
-28,
-25,
-23,
13,
-30,
33,
-47,
0,
73,
-7,
-12,
10,
-25,
-55,
-63,
-8,
-21,
47,
-30,
71,
-51,
8,
-33,
-67,
41,
31,
-39,
-11,
32,
-6,
-2,
-11,
-20,
-29,
50,
-8,
-70,
50,
37,
-58,
38,
51,
-42,
-55,
-51,
-61,
45,
60,
-11,
-47,
-8,
58,
-50,
-16,
38,
-36,
72,
39,
55,
24,
-26,
4,
-67,
-43,
44,
29,
-10,
-53,
34,
47,
30,
5,
-16,
15,
-63,
49,
65,
31,
-57,
48,
67,
8,
6,
-69,
58,
-33,
26,
-67,
-24,
-54,
22,
-57,
-62,
-4,
53,
-16,
-34,
0,
-72,
-66,
-19,
-50,
-42,
-52,
-28,
-5,
-83,
-47,
-10,
-83,
28,
-85,
45,
54,
-72,
2,
45,
-57,
16,
-33,
-26,
-55,
58,
-84,
29,
-43,
-21,
9,
5,
-35,
19,
-46,
49,
22,
-61,
37,
34,
54,
7,
-43,
-47,
71,
52,
-7,
-59,
-39,
-27,
-47,
-54,
46,
-13,
-28,
-46,
83,
-68,
-20,
43,
-6,
13,
-17,
48,
-35,
51,
-54,
-65,
1,
84,
9,
57,
-70,
38,
26,
14,
71,
-43,
43,
5,
-14,
-10,
47,
-25,
10,
54,
18,
66,
-15,
-75,
44,
21,
66,
14,
-42,
-39,
3,
4,
46,
-45,
-22,
-33,
25,
31,
67,
2,
-71,
-66,
14,
-33,
-15,
9,
51,
-51,
-74,
32,
48,
-44,
-47,
-8,
-46,
-42,
-13,
-50,
17,
-22,
-44,
5,
67,
4,
45,
-10,
14,
-20,
-16,
-63,
-7,
-47,
4,
20,
-56,
38,
-59,
51,
70,
-71,
-7,
-72,
-18,
41,
-19,
11,
-59,
53,
4,
-17,
2,
64,
-62,
25,
38,
13,
-46,
32,
69,
81,
75,
-32,
-18,
-64,
2,
-74,
-60,
-12,
-24,
61,
19,
-24,
-25,
66,
-9,
44,
-45,
12,
33,
-45,
-14,
20,
-45,
20,
-15,
-63,
-60,
-79,
38,
3,
24,
-53,
32,
-24,
39,
-73,
-18,
-24,
48,
27,
52,
22,
-75,
-48,
32,
6,
43,
-16,
58,
31,
-55,
-27,
51,
-21,
7,
-24,
-42,
-38,
-39,
15,
-51,
24,
27,
37,
-54,
-22,
35,
-24,
19,
-23,
-13,
64,
56,
-16,
-32,
-60,
-76,
43,
43,
-55,
89,
77,
78,
-16,
10,
-24,
-63,
17,
-25,
-35,
19,
73,
-39,
-11,
-66,
-75,
18,
7,
-16,
18,
-47,
65,
-39,
-8,
-58,
-77,
-73,
-66,
-39,
-68,
91,
-8,
58,
-52,
-33,
48,
-54,
27,
72,
66,
4,
33,
2,
22,
28,
-27,
-23,
-56,
-34,
50,
-52,
27,
-64,
53,
-36,
-10,
55,
-49,
2,
17,
-36,
-37,
-2,
63,
28,
44,
-18,
-6,
72,
88,
41,
47,
11,
-14,
-29,
-47,
56,
15,
-8,
67,
-43,
81,
-12,
68,
-10,
75,
48,
-27,
-27,
52,
1,
6,
33,
-28,
-41,
67,
-58,
-27,
45,
-71,
-75,
41,
-8,
-51,
56,
63,
62,
-46,
-23,
-56,
77,
78,
-48,
-22,
-28,
22,
22,
5,
-88,
3,
-76,
-63,
30,
82,
74,
-61,
-34,
-58,
37,
-17,
-87,
-24,
13,
-75,
78,
-12,
22,
-47,
43,
-1,
22,
-37,
50,
17,
-12,
-56,
-15,
3,
-42,
50,
-70,
-34,
2,
52,
-6,
63,
-20,
-68,
58,
-43,
-46,
-10,
-7,
-36,
-56,
35,
8,
31,
22,
-77,
-46,
20,
-15,
29,
78,
-63,
81,
16,
-68,
-22,
29,
-4,
-15,
-92,
39,
67,
60,
-10,
57,
27,
22,
-55,
15,
-19,
45,
-63,
28,
60,
-52,
-40,
-20,
-21,
18,
32,
-52,
50,
-4,
-59,
76,
-23,
-52,
22,
-1,
22,
-38,
56,
48,
-87,
-28,
-38,
-9,
52,
-40,
16,
-31,
-53,
24,
47,
-2,
-80,
-66,
14,
29,
-46,
-68,
-48,
-10,
-24,
64,
-5,
2,
-25,
8,
-18,
-34,
25,
53,
-83,
-44,
22,
-13,
56,
0,
16,
17,
57,
46,
55,
73,
-60,
-72,
11,
-23,
12,
68,
-11,
38,
57,
2,
19,
-68,
-28,
-48,
-19,
-8,
67,
70,
62,
-60,
-17,
41,
-75,
-5,
8,
-18,
-32,
-13,
-37,
43,
68,
77,
-43,
21,
-44,
-4,
-47,
31,
-80,
-67,
-59,
19,
2,
9,
3,
-52,
-64,
-38,
72,
13,
48,
47,
48,
-19,
-60,
81,
62,
-61,
75,
20,
-35,
25,
61,
17,
28,
65,
-30,
-12,
-2,
45,
4,
49,
47,
38,
-9,
-28,
-62,
75,
16,
-1,
-30,
18,
38,
11,
-62,
29,
14,
58,
60,
-46,
13,
-14,
13,
-15,
41,
-23,
-35,
-46,
-45,
-39,
21,
57,
-3,
40,
46,
-43,
30,
38,
9,
-61,
12,
59,
-64,
25,
35,
42,
-76,
32,
54,
-18,
-66,
-56,
55,
20,
-22,
-45,
-63,
14,
40,
-30,
69,
-44,
27,
-39,
-17,
-22,
5,
21,
19,
-50,
-34,
-58,
15,
-43,
22,
51,
47,
-17,
80,
13,
50,
43,
58,
-66,
-55,
4,
-74,
-62,
53,
-29,
28,
54,
-4,
-56,
61,
-9,
-6,
40,
-3,
-6,
-21,
-49,
-14,
-60,
10,
-20,
4,
43,
29,
-14,
15,
-22,
0,
-1,
66,
3,
37,
-56,
-55,
-28,
-60,
49,
25,
-23,
71,
68,
16,
-26,
28,
55,
-19,
4,
-53,
-64,
-7,
-57,
-13,
1,
32,
-2,
30,
9,
-24,
-29,
31,
7,
-12,
32,
-18,
-60,
-4,
39,
54,
47,
-68,
-47,
-37,
13,
-57,
33,
40,
-6,
-36,
-17,
-30,
-79,
-27,
26,
-24,
-9,
-28,
-63,
77,
62,
-48,
-43,
-13,
-59,
35,
-27,
-30,
87,
25,
-25,
78,
-54,
40,
20,
-43,
-73,
57,
-14,
17,
-61,
-25,
-11,
17,
51,
52,
-41,
-31,
47,
19,
-27,
62,
-36,
51,
54,
-4,
-25,
24,
-61,
-35,
-53,
53,
-63,
27,
-70,
-38,
-52,
39,
-18,
72,
44,
-4,
-1,
-5,
-73,
-66,
14,
36,
62,
27,
63,
34,
-41,
-4,
-60,
-16,
37,
72,
68,
43,
-66,
-65,
58,
46,
64,
54,
-4,
-18,
23,
-38,
-50,
-36,
-80,
63,
72,
-37,
-31,
-38,
-5,
-71,
-26,
31,
52,
19,
47,
55,
74,
-62,
6,
22,
81,
35,
33,
68,
87,
-1,
-54,
24,
-33,
5,
-3,
42,
-37,
0,
-42,
-58,
11,
-28,
-30,
62,
-51,
-17,
-63,
-9,
-28,
20,
48,
-72,
6,
55,
-4,
4,
30,
66,
6,
-83,
-106,
-98,
-11,
-40,
42,
-54,
39,
-35,
7,
-32,
-78,
31,
-78,
-93,
-42,
-44,
20,
-62,
81,
-52,
7,
27,
90,
-30,
-30,
-42,
2,
-22,
6,
38,
61,
60,
49,
-13,
-51,
18,
-46,
57,
85,
-49,
-9,
-8,
29,
-55,
27,
-74,
-74,
60,
45,
12,
48,
-68,
40,
62,
43,
-77,
-35,
-23,
50,
64,
-76,
51,
-52,
26,
-44,
33,
54,
-58,
55,
-70,
2,
-2,
24,
-19,
47,
-36,
52,
32,
49,
-4,
27,
-62,
-60,
-26,
4,
-18,
-55,
47,
5,
-37,
-19,
3,
-5,
9,
27,
33,
-12,
55,
-65,
-40,
31,
-15,
6,
-73,
-53,
-27,
47,
-20,
-45,
9,
3,
-43,
92,
-48,
-21,
-18,
-61,
-43,
34,
-26,
-32,
-29,
-4,
-5,
21,
16,
-52,
-39,
-70,
-42,
33,
13,
-6,
46,
-76,
-30,
44,
21,
21,
9,
-51,
38,
-71,
47,
20,
16,
-80,
44,
-40,
40,
36,
19,
57,
-48,
-8,
32,
30,
-12,
0,
-64,
30,
-35,
-27,
-14,
-41,
-7,
-3,
-2,
-12,
-52,
29,
14,
55,
50,
-46,
-31,
77,
-49,
52,
-39,
-62,
-56,
-52,
-54,
-40,
-49,
-72,
32,
-21,
7,
20,
79,
62,
-47,
42,
55,
51,
17,
50,
-13,
-16,
-2,
54,
-59,
63,
-55,
12,
27,
21,
29,
-56,
-2,
78,
-49,
53,
42,
-38,
28,
42,
-52,
-80,
-65,
-69,
48,
-74,
34,
-54,
52,
-54,
61,
7,
-55,
-68,
61,
25,
67,
43,
-36,
-24,
27,
-73,
14,
55,
10,
30;
