memory_initialization_radix=10;
memory_initialization_vector=
46,
-67,
-46,
73,
21,
44,
3,
1,
23,
43,
-52,
-16,
-25,
-19,
57,
10,
73,
-72,
-16,
67,
67,
78,
82,
-9,
32,
-29,
48,
-77,
10,
15,
-11,
-16,
-8,
83,
-25,
10,
-12,
-18,
-32,
-22,
-52,
9,
-45,
-19,
-1,
-61,
-37,
-62,
57,
27,
33,
20,
31,
-40,
-26,
56,
-27,
26,
16,
-40,
-44,
-18,
-4,
63,
46,
-14,
-48,
-42,
63,
-65,
18,
-51,
-66,
29,
60,
35,
-9,
-18,
-25,
18,
-60,
-58,
36,
-63,
39,
18,
56,
15,
-23,
85,
-17,
80,
15,
-23,
-47,
-73,
-8,
40,
-4,
63,
-45,
-38,
-9,
45,
41,
-46,
-12,
-16,
51,
-40,
-12,
18,
-1,
-15,
42,
12,
48,
-18,
63,
28,
11,
-69,
-25,
-4,
-4,
-10,
29,
-71,
-46,
49,
-16,
35,
12,
25,
55,
14,
71,
-43,
31,
33,
52,
37,
-32,
22,
57,
19,
-64,
87,
48,
53,
54,
29,
57,
9,
49,
-36,
3,
-48,
-6,
9,
64,
-46,
17,
-68,
-8,
-31,
77,
26,
-46,
-15,
-2,
17,
-18,
-22,
-57,
20,
43,
-65,
37,
67,
-25,
61,
-10,
-66,
32,
-44,
-22,
-25,
-40,
42,
-38,
-32,
-9,
22,
66,
-54,
-17,
43,
-1,
0,
-12,
-42,
-38,
25,
65,
-48,
25,
30,
-71,
28,
4,
27,
-81,
15,
-57,
-65,
67,
-80,
34,
23,
68,
11,
26,
-69,
-16,
44,
3,
45,
-21,
-72,
-38,
-20,
-8,
-15,
-15,
51,
-9,
26,
68,
57,
-23,
-35,
46,
-12,
-60,
-18,
-44,
54,
63,
-52,
57,
-54,
-44,
-26,
-20,
1,
-10,
-17,
-5,
23,
65,
-15,
-57,
20,
64,
84,
11,
-54,
-76,
-24,
29,
-15,
68,
6,
45,
42,
-45,
-9,
-53,
4,
-12,
-42,
5,
-47,
59,
5,
59,
-72,
34,
-13,
-51,
-7,
-46,
56,
-41,
-22,
41,
-17,
0,
7,
-72,
27,
-38,
-42,
-31,
46,
84,
79,
-68,
1,
3,
-47,
-31,
-31,
39,
30,
-42,
43,
-40,
51,
33,
-71,
-20,
-46,
39,
-11,
-39,
-21,
12,
28,
-56,
28,
57,
55,
27,
-28,
49,
33,
4,
-2,
34,
60,
-4,
46,
-4,
28,
60,
40,
-55,
-57,
38,
35,
44,
-38,
62,
27,
46,
-54,
-54,
51,
78,
-52,
19,
-7,
-70,
-25,
54,
57,
-50,
-22,
-52,
13,
0,
45,
4,
43,
27,
37,
76,
-70,
-84,
39,
-68,
59,
50,
41,
-62,
46,
-29,
-37,
40,
-27,
34,
-37,
-69,
38,
42,
-1,
-43,
-63,
6,
57,
12,
-59,
-32,
-37,
18,
-11,
12,
-28,
-23,
-1,
-58,
-29,
-4,
-2,
45,
-38,
-26,
-37,
-79,
-25,
-13,
-18,
-43,
49,
-22,
53,
12,
-27,
-27,
80,
28,
13,
-56,
-53,
76,
-30,
-43,
32,
27,
-6,
-42,
-35,
47,
64,
-50,
-42,
-6,
-64,
-8,
-64,
24,
20,
72,
46,
-35,
67,
-56,
78,
48,
23,
7,
30,
-36,
-75,
31,
33,
18,
63,
69,
41,
-53,
-64,
22,
-51,
1,
-7,
-59,
-60,
-37,
27,
-57,
2,
-6,
-48,
-2,
26,
-73,
65,
-16,
34,
-51,
11,
27,
-6,
-60,
42,
-47,
-1,
46,
11,
71,
-20,
-72,
42,
51,
18,
0,
-6,
69,
56,
-8,
16,
-60,
-9,
-24,
15,
-78,
-33,
7,
-1,
-40,
17,
41,
49,
-46,
57,
42,
56,
10,
2,
52,
-72,
-37,
-55,
-52,
41,
70,
-14,
-57,
8,
-69,
-80,
-82,
-50,
3,
12,
18,
-54,
-58,
-62,
47,
66,
-68,
-36,
-30,
53,
26,
-12,
54,
-29,
-59,
-18,
1,
-36,
27,
-32,
-17,
-16,
21,
-48,
-50,
-18,
41,
-58,
-60,
-54,
50,
34,
-21,
57,
-45,
8,
12,
43,
77,
12,
-17,
73,
41,
32,
52,
72,
-47,
-31,
-77,
-39,
-54,
3,
-8,
53,
-64,
15,
36,
53,
-44,
50,
-51,
42,
-19,
42,
1,
-35,
-39,
30,
68,
-33,
37,
63,
-2,
-31,
-42,
-87,
-70,
-66,
52,
14,
-64,
-49,
-22,
99,
2,
-63,
-10,
39,
-51,
13,
16,
-7,
14,
4,
12,
-42,
73,
56,
-9,
-30,
13,
57,
54,
15,
61,
-22,
23,
75,
4,
-32,
-9,
-44,
-58,
34,
-28,
32,
-5,
-28,
20,
64,
22,
39,
-81,
7,
10,
-45,
29,
-61,
-66,
-36,
-20,
17,
-47,
53,
3,
-22,
-14,
41,
65,
74,
-50,
28,
-8,
48,
39,
71,
27,
-70,
6,
-9,
-88,
4,
-29,
61,
69,
-22,
32,
71,
28,
-5,
-70,
15,
-43,
32,
-30,
-27,
-40,
-12,
-75,
-60,
-20,
-53,
10,
-74,
32,
64,
30,
-9,
-22,
24,
5,
66,
34,
49,
-13,
-5,
-1,
24,
84,
24,
28,
52,
6,
-48,
-23,
-6,
-27,
12,
-2,
6,
-14,
8,
-41,
68,
52,
-24,
62,
37,
9,
7,
-24,
60,
-10,
-19,
-27,
-21,
-71,
-29,
4,
15,
26,
67,
-81,
26,
-1,
-31,
13,
14,
-20,
-54,
-4,
-23,
8,
59,
36,
49,
3,
-37,
87,
22,
30,
23,
-39,
-67,
31,
49,
5,
1,
10,
-43,
-34,
-9,
67,
-56,
-24,
68,
-23,
53,
-10,
-29,
-43,
8,
1,
-68,
45,
-87,
54,
-56,
8,
52,
-29,
53,
26,
47,
-10,
-74,
-30,
-86,
3,
-79,
-14,
5,
-69,
-30,
-14,
-34,
57,
-49,
-2,
-79,
63,
-57,
-14,
-25,
0,
-23,
47,
26,
-35,
-23,
65,
46,
83,
7,
-49,
-60,
-13,
2,
2,
-46,
-66,
-66,
75,
-29,
-28,
64,
-61,
-11,
-31,
-40,
-26,
-33,
45,
10,
57,
-17,
-58,
-39,
42,
67,
38,
-20,
21,
-37,
-52,
40,
-27,
-36,
71,
1,
-4,
-23,
68,
-61,
58,
71,
-5,
17,
37,
44,
53,
7,
-8,
40,
-57,
2,
-10,
-30,
-39,
34,
14,
1,
-77,
-69,
10,
1,
-65,
12,
54,
-18,
17,
-8,
-48,
19,
32,
-5,
33,
-24,
-65,
-19,
26,
-50,
4,
35,
20,
-50,
49,
27,
8,
-18,
19,
-17,
72,
81,
-9,
53,
39,
-36,
-18,
8,
-66,
-43,
-57,
-87,
46,
34,
-18,
-73,
52,
51,
-15,
-6,
-73,
-27,
-29,
15,
3,
-67,
-71,
35,
-10,
6,
-3,
-25,
68,
-16,
-56,
46,
-38,
26,
15,
-47,
-11,
-71,
-26,
12,
63,
82,
30,
-4,
-44,
-51,
77,
15,
-23,
66,
0,
-3,
18,
-47,
-47,
65,
20,
-16,
-56,
-1,
-7,
-45,
-3,
-58,
65,
48,
60,
29,
-58,
-18,
-14,
80,
-52,
13,
67,
26,
18,
-49,
-67,
16,
83,
41,
-54,
-24,
61,
36,
-46,
72,
-1,
75,
-1,
-57,
19,
31,
-4,
-36,
3,
-40,
49,
0,
-63,
50,
-66,
66,
-72,
-46,
49,
44,
-12,
-76,
54,
24,
36,
-16,
52,
-58,
-75,
0,
74,
-22,
-72,
-56,
-46,
-15,
29,
49,
44,
-40,
40,
4,
-54,
-22,
64,
19,
7,
63,
3,
-31,
-12,
43,
-3,
43,
-2,
-65,
27,
-87,
-43,
34,
-4,
1,
15,
-65,
-50,
-6,
32,
-65,
-25,
-5,
31,
38,
-24,
-23,
17,
7,
-17,
72,
-84,
-2,
-66,
48,
50,
19,
-50,
5,
-29,
20,
12,
-54,
18,
24,
-36,
53,
26,
73,
33,
-21,
-2,
81,
67,
27,
-9,
36,
-8,
-19,
-5,
25,
54,
12,
42,
-63,
-7,
-72,
-64,
53,
64,
64,
29,
31,
43,
80,
55,
-58,
42,
-31,
39,
-8,
-61,
-43,
16,
-59,
42,
2,
-36,
16,
18,
21,
-17,
37,
-57,
51,
-21,
-10,
-19,
-74,
13,
-18,
2,
47,
-2,
6,
-8,
-40,
37,
-74,
39,
-80,
7,
17,
16,
-18,
-23,
65,
-70,
58,
-50,
13,
38,
70,
-28,
-56,
29,
-94,
33,
7,
-2,
-51,
18,
-42,
4,
7,
-18,
-54,
-1,
-65,
54,
-39,
50,
-35,
-74,
26,
27,
57,
26,
-69,
35,
68,
-4,
59,
15,
-35,
-75,
8,
-72,
17,
-27,
-75,
44,
-51,
51,
61,
-27,
-37,
44,
-9,
-71,
47,
6,
-13,
59,
81,
17,
33,
-22,
19,
65,
-30,
5,
70,
-81,
21,
59,
29,
-39,
-25,
25,
50,
-27,
-57,
-31,
-54,
-5,
55,
-49,
-11,
-3,
-11,
-5,
-51,
40,
-37,
-74,
20,
58,
-4,
1,
19,
-6,
49,
-34,
69,
-60,
1,
-19,
11,
43,
19,
12,
48,
-16,
12,
50,
73,
-24,
-26,
75,
1,
8,
-8,
-26,
-41,
22,
-29,
46,
17,
-31,
-43,
40,
45,
48,
35,
-61,
15,
-51,
45,
-24,
6,
21,
-63,
-17,
16,
-6,
-27,
7,
-96,
-9,
-69,
-41,
54,
-9,
-56,
27,
4,
-34,
-11,
41,
34,
-84,
-62,
5,
-9,
-45,
-77,
-24,
-74,
11,
25,
25,
-85,
-27,
25,
-45,
43,
-89,
-84,
-56,
-60,
-65,
53,
-24,
-53,
76,
32,
58,
50,
9,
-6,
43,
17,
17,
-61,
-21,
40,
32,
13,
47,
25,
12,
-32,
-14,
-40,
-47,
-88,
-47,
-44,
44,
-63,
-44,
-41,
12,
3,
-26,
-32,
53,
-25,
30,
-4,
12,
-90,
9,
-40,
36,
-7,
45,
-45,
1,
-36,
-34,
-47,
23,
58,
66,
13,
38,
-50,
-11,
51,
-36,
41,
17,
4,
-7,
-51,
16,
25,
77,
-54,
16,
7,
29,
81,
8,
56,
-55,
3,
47,
-46,
42,
19,
53,
26,
64,
0,
39,
-37,
-35,
-26,
-63,
14,
26,
13,
64,
53,
-5,
23,
41,
-10,
-23,
0,
55,
-66,
6,
21,
-6,
-53,
13,
-40,
36,
25,
30,
-37,
-34,
-54,
55,
-40,
-19,
-14,
-6,
-58,
46,
34,
-36,
-34,
31,
47,
53,
0,
10,
71,
17,
-52,
-39,
22,
40,
-50,
-89,
-1,
-32,
57,
-11,
-40,
-68,
-54,
-59,
52,
39,
56,
-13,
53,
6,
-67,
61,
51,
-48,
-53,
-5,
-54,
50,
10,
37,
63,
-7,
-17,
57,
21,
54,
-62,
-52,
41,
-50,
-47,
-65,
36,
45,
-60,
-54,
9,
66,
-52,
55,
77,
1,
-110,
-3,
-6,
-47,
-31,
-27,
49,
51,
-32,
80,
11,
-33,
-21,
61,
81,
73,
-41,
54,
-4,
22,
22,
8,
-2,
36,
78,
10,
-27,
71,
-40,
-55,
-34,
73,
96,
63,
60,
83,
61,
31,
28,
5,
88,
55,
7,
-75,
4,
42,
56,
-8,
31,
-41,
-10,
0,
-75,
-2,
-74,
53,
-16,
-10,
5,
26,
-80,
53,
26,
53,
40,
1,
13,
49,
64,
-50,
-23,
-48,
25,
-71,
-28,
-20,
37,
43,
-56,
62,
-57,
-45,
70,
59,
-21,
-34,
47,
-86,
37,
-76,
-74,
-64,
-53,
-90,
-32,
8,
15,
35,
-4,
-73,
-45,
37,
-74,
54,
27,
-44,
12,
39,
-62,
16,
27,
-72,
-10,
-73,
-62,
29,
-12,
-11,
44,
56,
33,
1,
-8,
-8,
-62,
52,
-57,
-82,
-71,
20,
-55,
-78,
-27,
33,
33,
-13,
19,
-56,
-30,
-69,
-30,
69,
44,
47,
-16,
-17,
-27,
-23,
-35,
63,
-11,
80,
58,
-47,
14,
-40,
9,
-14,
84,
-9,
-32,
33,
15,
57,
-17,
40,
63,
43,
42,
-28,
40,
-62,
16,
26,
-47,
-29,
21,
-79,
-52,
23,
-56,
59,
-39,
-48,
-14,
-11,
61,
53,
-64,
-13,
-47,
-55,
-2,
40,
81,
41,
35,
60,
17,
17,
43,
39,
-65,
62,
-48,
-8,
47,
18,
-55,
-8,
10,
-65,
0,
47,
-108,
31,
-62,
75,
-61,
-57,
-45,
37,
48,
19,
-39,
20,
11,
-42,
-6,
56,
-5,
45,
24,
-2,
-78,
41,
29,
-36,
-23,
28,
-75,
27,
-51,
-45,
11,
3,
24,
56,
-56,
-20,
77,
-43,
10,
-6,
-57,
-79,
57,
-69,
-23,
-35,
-65,
31,
-21,
-38,
22,
-32,
9,
-70,
28,
44,
16,
18,
14,
21,
-17,
23,
-19,
-41,
4,
-15,
-56,
-74,
65,
4,
-22,
-57,
9,
65,
-54,
-15,
-67,
55,
-48,
-22,
-6,
55,
-30,
-12,
64,
2,
37,
-11,
-52,
-12,
-49,
-40,
15,
-8,
-59,
55,
68,
-19,
-43,
51,
19,
-11,
81,
53,
52,
-16,
-13,
-7,
-6,
-48,
22,
-48,
5,
39,
-46,
-62,
20,
-21,
-21,
-70,
-2,
11,
-1,
0,
-50,
-33,
61,
-66,
53,
-45,
-35,
14,
20,
84,
-42,
-9,
-74,
1,
-56,
57,
-73,
29,
58,
5,
8,
-47,
-91,
-64,
-25,
-59,
9,
38,
-8,
57,
-64,
-35,
-19,
5,
-62,
-27,
41,
-44,
-74,
44,
-16,
-40,
-26,
-49,
-2,
23,
53,
-2,
32,
-77,
9,
-36,
43,
39,
-62,
-35,
-52,
-29,
42,
44,
-61,
-25,
-24,
2,
-46,
-2,
17,
-46,
80,
5,
-14,
45,
15,
36,
15,
-67,
-14,
52,
32,
64,
13,
73,
54,
49,
-1,
-6,
-57,
-28,
52,
-24,
-41,
58,
-32,
-50,
38,
43,
-34,
-38,
29,
32,
-5,
7,
-56,
-59,
-59,
75,
54,
-50,
72,
46,
-72,
33,
57,
17,
33,
-51,
-43,
-26,
4,
-16,
22,
-16,
35,
71,
-24,
-5,
-29,
75,
-8,
-7,
32,
-19,
-49,
-29,
19,
-37,
-37,
-56,
3,
55,
49,
16,
-20,
38,
47,
-7,
-51,
61,
5,
-43,
-36,
-20,
-50,
-2,
-31,
-24,
-8,
20,
-68,
14,
-52,
23,
-30,
-56,
4,
41,
34,
-58,
-19,
59,
-88,
66,
8,
69,
10,
17,
-75,
87,
82,
-31,
55,
-40,
47,
3,
-6,
-11,
-39,
6,
-14,
-4,
102,
-47,
29,
70,
74,
14,
53,
9,
-72,
-83,
-72,
-55,
65,
-42,
-66,
54,
-19,
8,
-81,
5,
31,
-53,
-16,
55,
-31,
-63,
-21,
-41,
48,
-18,
-84,
-47,
31,
59,
17,
36,
-67,
-47,
44,
-26,
-3,
32,
-57,
42,
-85,
-48,
44,
56,
-5,
55,
9,
-48,
76,
54,
66,
30,
-61,
44,
32,
-30,
79,
23,
10,
5,
-65,
-57,
-30,
68,
47,
-1,
51,
-53,
13,
-52,
-7,
76,
-22,
-60,
-9,
-43,
-53,
-51,
83,
20,
-39,
56,
2,
55,
0,
38,
30,
5,
11,
27,
-54,
-63,
32,
7,
62,
-7,
4,
-80,
-21,
-11,
-67,
-27,
-65,
59,
-41,
-56,
-11,
-2,
-73,
10,
-56,
-46,
-36,
3,
16,
-12,
-32,
55,
17,
-62,
-64,
-54,
-32,
42,
15,
43,
-25,
13,
36,
-27,
-53,
-43,
-22,
-15,
-23,
-49,
-70,
-49,
47,
-67,
14,
-43,
-54,
50,
-13,
-70,
-55,
4,
59,
46,
4,
25,
45,
-19,
-65,
36,
-85,
-60,
-76,
49,
3,
-40,
60,
48,
-9,
61,
44,
53,
50,
38,
55,
-36,
39,
71,
-54,
-2,
15,
60,
22,
26,
50,
-35,
-27,
-43,
3,
28,
62,
-12,
-3,
-54,
-43,
46,
-68,
-38,
47,
0,
40,
10,
-56,
-25,
27,
-38,
10,
38,
47,
-31,
21,
-15,
-77,
42,
-19,
-61,
-52,
-8,
-76,
-12,
-63;
