memory_initialization_radix=10;
memory_initialization_vector=
-13,
43,
-63,
-59,
-27,
22,
-36,
-20,
63,
-11,
59,
-60,
-42,
1,
-62,
17,
15,
-76,
-52,
-14,
-14,
-58,
-48,
25,
74,
20,
21,
47,
-84,
-50,
51,
-5,
45,
-35,
18,
-42,
1,
7,
35,
-59,
10,
-41,
-13,
-65,
-46,
-12,
35,
7,
27,
-48,
46,
12,
51,
25,
0,
42,
53,
-37,
22,
-5,
52,
-42,
-54,
56,
-61,
37,
26,
-72,
50,
-35,
54,
-12,
29,
-28,
0,
-11,
-6,
-50,
-69,
-3,
31,
27,
74,
62,
-2,
17,
60,
70,
-4,
68,
5,
-13,
-65,
-18,
67,
47,
75,
24,
17,
3,
-37,
40,
-66,
-6,
75,
45,
3,
34,
-79,
30,
41,
-70,
-64,
8,
-1,
-25,
67,
-71,
23,
-53,
-4,
27,
11,
-53,
-26,
36,
54,
66,
-28,
27,
57,
-43,
37,
7,
-27,
-49,
10,
64,
-13,
-14,
-32,
-33,
-3,
-75,
8,
69,
-17,
-27,
53,
39,
-10,
-76,
-14,
-30,
26,
9,
5,
-72,
-51,
20,
61,
-13,
-38,
-8,
-50,
-43,
-1,
-30,
60,
59,
-53,
-62,
-23,
55,
38,
-7,
34,
6,
20,
38,
-41,
-16,
-3,
-23,
56,
74,
10,
57,
-9,
13,
-4,
-58,
-69,
52,
63,
8,
49,
38,
86,
67,
11,
89,
5,
75,
-61,
-38,
21,
61,
-4,
-22,
90,
12,
-15,
-65,
71,
-56,
-38,
-10,
79,
-54,
49,
-55,
26,
-26,
42,
48,
60,
49,
26,
46,
-60,
-20,
25,
-37,
34,
17,
46,
-43,
16,
-11,
58,
-72,
60,
28,
62,
91,
-16,
72,
42,
-17,
8,
44,
51,
-12,
12,
27,
-3,
79,
6,
-49,
-48,
40,
-5,
-33,
-24,
-10,
0,
85,
25,
41,
18,
48,
-20,
-45,
-59,
30,
-58,
-54,
-24,
-34,
-44,
22,
-79,
36,
-45,
-62,
51,
21,
71,
40,
-26,
42,
52,
-21,
-69,
2,
-15,
-57,
-26,
-34,
-23,
58,
-38,
9,
-44,
-22,
67,
-3,
-12,
-30,
1,
-48,
50,
-6,
-15,
-20,
11,
-24,
3,
-33,
33,
-53,
-10,
-35,
41,
-34,
-17,
26,
-22,
0,
28,
55,
-45,
-36,
30,
-69,
-12,
-22,
61,
-24,
46,
-57,
-27,
26,
12,
66,
-29,
-18,
20,
-62,
-65,
63,
5,
19,
-37,
-55,
64,
34,
-56,
55,
-28,
66,
21,
18,
5,
-3,
-42,
-44,
-45,
18,
-47,
45,
-13,
-42,
56,
21,
-53,
-35,
23,
-12,
-32,
-14,
10,
32,
-59,
-40,
71,
31,
0,
-2,
64,
7,
66,
-20,
38,
-1,
-6,
19,
-25,
6,
66,
7,
-57,
36,
-49,
52,
25,
-43,
18,
-7,
57,
4,
18,
-35,
47,
-49,
54,
-23,
-4,
-44,
-75,
-40,
-15,
12,
5,
0,
-48,
-22,
59,
27,
51,
-48,
1,
29,
40,
-40,
-43,
68,
-62,
22,
76,
90,
25,
-9,
6,
-41,
-72,
19,
23,
46,
-35,
-64,
-5,
-52,
-33,
60,
-42,
18,
-41,
-53,
-30,
56,
-39,
-32,
15,
-40,
24,
-25,
-11,
1,
-38,
52,
3,
-21,
-70,
44,
12,
-37,
-44,
31,
-20,
-82,
12,
12,
-80,
29,
28,
-41,
-6,
-52,
13,
-32,
21,
-18,
36,
-60,
-55,
21,
-28,
-56,
-16,
-19,
40,
-48,
-84,
-50,
-24,
-70,
-24,
6,
-68,
52,
-42,
44,
2,
-58,
-2,
58,
27,
-51,
-42,
29,
28,
10,
-23,
-103,
55,
-48,
-37,
9,
-25,
20,
-49,
28,
15,
-91,
-3,
-62,
-73,
-92,
-5,
-11,
12,
-26,
-5,
45,
-53,
-9,
-38,
-82,
45,
-6,
70,
3,
-52,
37,
-40,
-20,
-4,
-37,
17,
-1,
-44,
-70,
6,
7,
54,
-36,
7,
22,
30,
42,
-71,
-61,
-58,
-6,
47,
35,
-25,
21,
-23,
59,
-34,
-46,
-16,
5,
-2,
-12,
-69,
-48,
10,
26,
73,
50,
-30,
-39,
-25,
91,
32,
55,
47,
-37,
36,
-15,
28,
-36,
25,
-34,
5,
96,
65,
-52,
-23,
36,
64,
84,
-56,
60,
18,
21,
-39,
103,
15,
41,
-66,
-19,
-52,
-44,
74,
78,
22,
14,
-53,
27,
34,
-23,
-14,
47,
72,
-26,
40,
88,
-39,
38,
-7,
-14,
-71,
-8,
-52,
-56,
-2,
49,
-47,
61,
17,
47,
-24,
37,
-39,
-24,
19,
34,
-49,
6,
-36,
38,
-46,
39,
-7,
-34,
50,
12,
39,
-51,
40,
-28,
50,
3,
75,
-61,
2,
-27,
-76,
55,
31,
46,
29,
-16,
6,
-20,
-4,
-64,
43,
33,
7,
13,
60,
60,
-65,
19,
-22,
4,
-82,
35,
-11,
-5,
0,
56,
72,
41,
15,
46,
22,
-26,
32,
28,
67,
-58,
-82,
68,
-27,
77,
27,
66,
55,
44,
-19,
30,
-78,
8,
53,
60,
34,
-64,
-59,
15,
-58,
13,
59,
8,
50,
-29,
34,
43,
55,
-37,
-79,
-51,
20,
-47,
-20,
-1,
20,
-9,
73,
-87,
-26,
-18,
-71,
-22,
-50,
12,
37,
15,
22,
23,
1,
-25,
27,
30,
55,
24,
21,
-14,
54,
-9,
13,
11,
17,
48,
-64,
29,
66,
71,
-31,
11,
38,
57,
41,
-9,
-23,
39,
70,
-54,
-35,
27,
-50,
67,
31,
-35,
-36,
38,
-28,
-47,
35,
39,
63,
-15,
38,
-22,
-62,
20,
-19,
48,
-64,
21,
9,
67,
-43,
-36,
-12,
26,
-21,
-10,
-39,
43,
-59,
25,
-48,
-31,
66,
41,
69,
-63,
39,
47,
35,
31,
11,
28,
-55,
20,
-19,
-4,
-34,
33,
16,
55,
-58,
86,
-39,
-54,
70,
36,
-41,
-31,
45,
-29,
16,
66,
67,
-11,
-54,
-37,
18,
58,
-32,
31,
-69,
25,
-7,
28,
-31,
19,
13,
11,
10,
-7,
-73,
-46,
27,
59,
28,
-1,
-34,
-54,
-19,
32,
-2,
-11,
33,
-16,
61,
-10,
59,
-49,
4,
10,
18,
-13,
-41,
3,
31,
-38,
-6,
43,
14,
5,
-3,
49,
-25,
34,
-21,
27,
3,
-46,
-47,
65,
-34,
-25,
-42,
55,
43,
19,
48,
-10,
-55,
52,
58,
-6,
48,
-8,
44,
-45,
-27,
-21,
-41,
73,
18,
-9,
-55,
-3,
-64,
-8,
-71,
55,
43,
-34,
68,
-66,
12,
15,
-50,
30,
-32,
47,
-56,
-63,
11,
-67,
-71,
-62,
-5,
88,
13,
-42,
-59,
-48,
-8,
20,
36,
25,
74,
25,
-57,
86,
-46,
-10,
-60,
39,
-64,
-60,
-83,
-77,
-24,
54,
-21,
-7,
24,
-21,
-26,
37,
-68,
-67,
-14,
28,
47,
53,
-11,
61,
46,
-25,
37,
-59,
-4,
25,
-25,
-71,
-12,
-34,
-44,
-4,
-69,
31,
-63,
-85,
-64,
-22,
38,
51,
1,
57,
-13,
-36,
48,
45,
29,
26,
35,
-54,
-26,
11,
-20,
37,
-42,
-79,
-18,
-34,
34,
75,
-38,
-22,
73,
-66,
40,
-19,
50,
-34,
-19,
33,
76,
69,
61,
-28,
-53,
30,
31,
-65,
63,
-35,
61,
32,
-56,
49,
-40,
-35,
-13,
78,
-38,
-74,
-58,
-48,
26,
-27,
-63,
58,
74,
-1,
10,
42,
-17,
-79,
-30,
38,
49,
-36,
-2,
-7,
-3,
21,
-45,
-11,
11,
-22,
-56,
-39,
-50,
-23,
-30,
-73,
-51,
-55,
23,
43,
40,
-64,
16,
-39,
-9,
17,
27,
-28,
21,
41,
54,
-22,
-44,
-51,
56,
-25,
37,
-7,
-1,
23,
-22,
-60,
-60,
55,
36,
-49,
70,
46,
66,
32,
34,
-13,
-18,
60,
13,
-4,
35,
59,
-73,
-40,
8,
59,
70,
22,
-16,
-67,
-68,
-12,
-30,
-10,
-66,
33,
-51,
0,
-30,
57,
-12,
-18,
32,
-40,
-63,
-65,
-72,
67,
33,
65,
-14,
-52,
-8,
-14,
-10,
-32,
-54,
-63,
-35,
9,
-71,
-43,
-64,
42,
68,
71,
-68,
-70,
-38,
-50,
-28,
-21,
36,
-26,
-76,
-27,
49,
-36,
-32,
-39,
35,
-37,
-15,
-13,
-29,
26,
-34,
-15,
-16,
-42,
60,
-60,
41,
-8,
28,
23,
-42,
-45,
-42,
-75,
38,
24,
11,
-39,
-78,
-71,
-12,
16,
-53,
23,
64,
-59,
-21,
-53,
-30,
-21,
29,
-22,
0,
-17,
-42,
-40,
22,
43,
-50,
-52,
-24,
39,
-9,
-17,
16,
31,
24,
10,
-20,
30,
-3,
-69,
29,
48,
44,
-13,
-47,
5,
-55,
69,
-12,
-20,
59,
49,
-3,
-74,
-36,
0,
39,
-11,
43,
26,
0,
-9,
76,
12,
62,
-14,
-60,
12,
-80,
14,
-98,
-12,
-63,
-14,
-35,
-7,
52,
-33,
31,
17,
51,
55,
-12,
-58,
42,
-30,
25,
-26,
62,
-7,
79,
-41,
16,
-26,
-43,
38,
-60,
-13,
-18,
-56,
4,
15,
-8,
56,
-13,
-69,
-92,
41,
55,
-24,
-25,
52,
-18,
70,
-5,
28,
-68,
-16,
42,
-48,
5,
64,
-47,
-47,
-22,
-24,
-18,
21,
16,
56,
-71,
-5,
-58,
54,
0,
48,
-18,
-46,
-61,
18,
59,
61,
17,
59,
30,
-65,
-54,
-46,
-42,
12,
71,
-49,
36,
33,
-58,
-34,
11,
-99,
15,
-26,
70,
-33,
23,
-13,
-63,
41,
-55,
20,
-8,
26,
23,
36,
65,
-36,
-81,
-32,
47,
-39,
-54,
-15,
-53,
22,
47,
41,
13,
-60,
5,
58,
19,
-26,
55,
48,
-34,
35,
-51,
-45,
-41,
-80,
-55,
-50,
16,
-73,
-59,
-2,
34,
50,
-68,
-77,
-70,
26,
-45,
-15,
33,
20,
51,
32,
-38,
4,
-9,
64,
1,
-65,
25,
28,
51,
-73,
15,
7,
63,
42,
33,
4,
-45,
-64,
58,
-3,
-31,
-70,
40,
-4,
40,
-18,
-17,
-59,
-16,
-59,
0,
55,
14,
55,
11,
15,
-32,
-95,
-11,
-53,
-40,
21,
-58,
-63,
-19,
-46,
49,
54,
-28,
-99,
-74,
-49,
4,
58,
66,
17,
8,
59,
-44,
47,
-46,
-1,
40,
11,
-66,
-59,
63,
26,
80,
61,
19,
-40,
-31,
50,
-5,
52,
19,
67,
-54,
-25,
-63,
-43,
68,
51,
-54,
-10,
-75,
39,
73,
50,
-9,
50,
17,
-12,
37,
-45,
-47,
-73,
-18,
74,
65,
-8,
33,
-5,
34,
-27,
46,
66,
-3,
-53,
-5,
48,
-50,
21,
51,
35,
-79,
-13,
-67,
27,
-55,
-50,
85,
-36,
40,
23,
-46,
-42,
-31,
-5,
-59,
-52,
-18,
-18,
42,
-5,
65,
8,
-69,
34,
-51,
-51,
1,
-14,
-75,
9,
85,
-67,
-80,
-2,
46,
1,
18,
38,
-12,
-29,
30,
-35,
2,
75,
6,
-12,
-50,
36,
31,
-3,
47,
9,
-80,
-12,
-13,
21,
26,
-5,
31,
34,
31,
17,
14,
-69,
-57,
-17,
23,
-30,
-11,
-71,
-24,
-74,
7,
30,
31,
-50,
77,
65,
23,
83,
18,
57,
44,
-32,
51,
72,
-16,
49,
-8,
-48,
33,
-36,
-68,
-23,
-61,
-8,
57,
52,
35,
34,
-26,
54,
-4,
-29,
-1,
-57,
37,
50,
-66,
-38,
20,
-14,
-84,
20,
58,
-8,
61,
-77,
25,
-17,
5,
76,
64,
-9,
37,
-59,
-24,
35,
-32,
64,
33,
29,
-2,
6,
40,
-66,
-11,
-43,
-16,
-64,
27,
-46,
47,
21,
21,
-49,
-24,
51,
28,
-12,
-67,
21,
34,
-22,
62,
-73,
-44,
33,
19,
-43,
-71,
-4,
11,
-3,
-76,
35,
30,
17,
-33,
56,
-7,
-33,
-14,
-2,
33,
4,
-62,
-66,
-11,
-8,
26,
29,
-48,
38,
-46,
-54,
-31,
3,
45,
-44,
-69,
-17,
1,
42,
-37,
-14,
10,
24,
51,
-13,
65,
49,
-7,
-75,
20,
54,
7,
-33,
33,
-41,
-4,
-37,
42,
-82,
-75,
1,
-81,
-11,
-4,
73,
-41,
39,
7,
-21,
32,
-29,
-90,
20,
-31,
56,
-61,
-48,
9,
35,
67,
-78,
21,
-38,
1,
7,
9,
-51,
-71,
-39,
31,
-72,
-56,
60,
31,
12,
50,
-41,
-49,
57,
31,
-68,
34,
-7,
-65,
82,
-9,
-55,
54,
62,
-58,
-47,
66,
15,
-3,
-4,
-8,
-61,
1,
47,
47,
-53,
-16,
-10,
24,
-59,
29,
-54,
58,
33,
-18,
36,
-44,
44,
-47,
41,
-32,
8,
39,
38,
50,
19,
-3,
14,
39,
-10,
-15,
-50,
-20,
-37,
-14,
53,
11,
-58,
34,
42,
-72,
-21,
19,
54,
4,
77,
-38,
-31,
-30,
-4,
14,
-60,
-52,
12,
10,
-23,
-25,
46,
-43,
-8,
-38,
-40,
41,
28,
11,
14,
35,
37,
52,
-38,
-48,
20,
74,
-40,
-50,
-17,
-75,
51,
39,
21,
56,
31,
60,
-27,
84,
17,
-7,
-6,
-10,
8,
-46,
69,
57,
-76,
-31,
90,
-17,
76,
65,
-51,
14,
5,
-1,
-23,
0,
-23,
14,
19,
77,
72,
88,
-25,
-48,
58,
-35,
54,
57,
-72,
-35,
51,
-8,
2,
71,
-59,
65,
24,
-54,
10,
25,
20,
58,
-27,
17,
25,
41,
30,
63,
44,
76,
12,
12,
57,
45,
20,
-59,
7,
5,
-40,
-39,
66,
-33,
-10,
16,
27,
-58,
37,
-53,
56,
-60,
34,
-56,
9,
-42,
65,
60,
-25,
-58,
18,
-57,
9,
30,
49,
-26,
-31,
33,
-4,
-36,
2,
-49,
-27,
-8,
-18,
-38,
71,
38,
-59,
-17,
-54,
18,
93,
8,
-64,
14,
26,
-45,
43,
79,
-24,
16,
-14,
-36,
-11,
-58,
35,
-73,
-17,
-18,
-45,
-46,
-41,
-51,
15,
7,
-64,
-37,
70,
-23,
-2,
-19,
39,
-5,
-39,
-25,
-74,
-56,
35,
-3,
21,
36,
-36,
49,
35,
-21,
-34,
18,
-29,
10,
-17,
64,
36,
-24,
-10,
73,
0,
-42,
-70,
1,
-62,
30,
13,
-51,
-65,
-63,
-21,
-11,
63,
14,
16,
25,
-41,
32,
103,
-52,
70,
-38,
-12,
-31,
-53,
-63,
39,
-6,
-16,
98,
67,
42,
56,
-12,
59,
6,
12,
56,
-4,
-62,
23,
76,
-22,
-10,
-8,
-67,
-20,
-10,
-79,
25,
-71,
-56,
30,
-50,
93,
70,
-28,
35,
-53,
-75,
13,
-28,
21,
25,
29,
6,
47,
-39,
34,
-29,
-19,
42,
-56,
-50,
40,
-42,
-26,
-37,
-32,
-42,
22,
-73,
-40,
12,
-80,
3,
-28,
-50,
22,
6,
67,
32,
-69,
-74,
44,
-19,
-45,
-25,
-56,
-45,
-56,
58,
27,
27,
-43,
84,
-4,
-43,
61,
3,
-43,
-78,
-14,
-51,
-51,
42,
1,
-2,
1,
-3,
84,
-82,
31,
53,
5,
9,
-18,
-29,
53,
11,
-52,
16,
52,
20,
-49,
-65,
35,
-67,
31,
26,
16,
-33,
34,
44,
-65,
62,
77,
-6,
30,
-31,
22,
8,
-40,
10,
-37,
14,
-17,
27,
30,
26,
-28,
50,
-29,
12,
-22,
-1,
60,
5,
4,
15,
25,
18,
-49,
-40,
-41,
17,
-69,
12,
7,
-75,
3,
54,
75,
-18,
4,
-56,
9,
54,
-73,
2,
22,
65,
-68,
68,
-58,
44,
-22,
53,
58,
35,
27,
51,
47,
58,
-40,
-42,
59,
38,
-64,
25,
-44,
63,
21,
46,
-18,
58,
43,
-6,
52,
-77,
-71,
39,
12,
18,
-37,
-43,
-60,
20,
57,
-67,
-54,
-32,
21,
32,
-31,
-12,
-39,
-37,
-29,
-44,
-82;
