memory_initialization_radix=10;
memory_initialization_vector=
1,
40,
-58,
59,
-17,
-35,
-53,
61,
24,
44,
18,
-50,
-47,
54,
-17,
78,
-6,
-81,
-43,
-5,
82,
72,
-67,
-22,
-28,
63,
51,
-10,
-20,
-34,
63,
29,
45,
-68,
33,
-71,
23,
14,
-43,
53,
15,
-52,
49,
31,
50,
19,
-10,
-39,
-29,
87,
17,
-5,
-30,
1,
90,
70,
-16,
-57,
35,
-29,
-48,
24,
64,
17,
-60,
61,
-19,
-74,
52,
40,
60,
-63,
2,
35,
-11,
-6,
-48,
48,
-3,
-3,
-37,
54,
-8,
-52,
-75,
-35,
-56,
-3,
60,
-42,
-56,
9,
-19,
-28,
-9,
83,
-75,
21,
19,
-58,
24,
-38,
-29,
17,
32,
49,
27,
6,
-11,
32,
-47,
20,
-31,
5,
37,
-22,
17,
-44,
-17,
74,
-9,
-45,
-14,
-55,
52,
52,
3,
-14,
-14,
13,
-34,
64,
63,
80,
-24,
-59,
41,
4,
39,
-51,
77,
28,
-44,
-13,
22,
-21,
32,
33,
10,
39,
65,
67,
70,
96,
4,
-3,
35,
74,
-14,
66,
-27,
42,
19,
72,
18,
73,
70,
-78,
-33,
-50,
56,
-54,
16,
2,
87,
52,
7,
-41,
45,
-47,
5,
77,
-24,
7,
-56,
-58,
69,
-39,
15,
-3,
-58,
5,
68,
76,
-37,
61,
-45,
-46,
37,
-22,
66,
10,
-20,
-34,
43,
0,
19,
-60,
-42,
-43,
33,
13,
-80,
15,
-26,
17,
-34,
37,
12,
-38,
39,
39,
65,
5,
12,
55,
-10,
-45,
-73,
44,
61,
-1,
39,
42,
54,
36,
-10,
39,
64,
79,
-54,
31,
-56,
-54,
-44,
74,
-19,
14,
-4,
-17,
-33,
-60,
30,
62,
40,
-21,
31,
-31,
45,
76,
8,
24,
54,
44,
41,
76,
-35,
-13,
-53,
4,
-19,
85,
63,
56,
64,
61,
17,
-65,
-20,
-3,
-19,
19,
42,
22,
55,
-13,
-5,
-42,
13,
-52,
-40,
-42,
-35,
30,
-31,
13,
-42,
-28,
39,
26,
-55,
41,
-38,
9,
40,
47,
-18,
-9,
-48,
67,
-34,
-44,
-39,
11,
32,
48,
22,
74,
19,
66,
71,
-60,
37,
-57,
47,
-57,
25,
5,
21,
66,
-77,
-46,
49,
-14,
58,
-29,
-28,
55,
20,
-4,
45,
37,
-27,
-52,
-47,
7,
61,
0,
-28,
-6,
-66,
-12,
33,
-23,
27,
58,
60,
-55,
-21,
18,
-29,
51,
13,
-68,
-73,
47,
31,
-10,
26,
14,
-1,
27,
47,
8,
-39,
-24,
20,
67,
-40,
-21,
-30,
-10,
23,
-35,
67,
6,
44,
6,
16,
6,
-37,
-46,
-33,
-4,
-53,
25,
38,
-48,
-60,
-54,
28,
55,
51,
43,
-22,
-48,
87,
5,
2,
-37,
-22,
18,
15,
-71,
36,
43,
62,
-11,
-46,
-50,
-9,
-52,
52,
49,
31,
-76,
39,
-29,
-74,
-12,
14,
19,
13,
-3,
-5,
44,
6,
42,
-55,
52,
-44,
-39,
5,
35,
2,
-62,
46,
-21,
-53,
-61,
-20,
-19,
-40,
-31,
-8,
-82,
43,
30,
41,
-10,
-12,
75,
37,
48,
-2,
-27,
16,
37,
-16,
-6,
-16,
28,
21,
-63,
44,
-27,
-22,
-54,
-23,
-30,
-13,
18,
49,
29,
35,
13,
-2,
31,
-55,
16,
-72,
54,
-48,
26,
20,
-17,
16,
15,
77,
57,
-68,
-34,
22,
-31,
-64,
-14,
-17,
29,
3,
38,
28,
-59,
-60,
-38,
-21,
86,
2,
-7,
1,
-31,
-25,
-39,
-3,
-21,
-38,
14,
42,
-11,
-53,
48,
-7,
-72,
-37,
62,
53,
-48,
2,
-15,
-36,
-7,
36,
9,
61,
-51,
2,
22,
36,
31,
93,
53,
-15,
-27,
22,
40,
62,
-27,
-38,
-68,
58,
32,
22,
65,
-37,
58,
14,
12,
-49,
-25,
-59,
19,
-31,
56,
-14,
45,
58,
-68,
-52,
42,
-21,
-4,
-60,
-9,
51,
66,
72,
-30,
57,
-27,
-51,
-27,
44,
-33,
13,
-32,
-47,
-7,
40,
22,
9,
-27,
-39,
40,
-78,
22,
63,
-46,
44,
72,
-50,
13,
-23,
7,
28,
-54,
48,
26,
-108,
-66,
85,
42,
45,
40,
-51,
-48,
20,
-21,
-82,
5,
-50,
34,
-67,
66,
39,
7,
32,
-63,
28,
49,
-86,
19,
-105,
-61,
74,
-80,
19,
-26,
-4,
-32,
44,
-31,
-80,
-81,
-45,
28,
7,
23,
-31,
37,
-19,
12,
5,
40,
-14,
-25,
29,
-69,
-58,
-29,
-26,
20,
2,
-12,
54,
-16,
68,
52,
35,
-91,
-23,
-43,
-60,
50,
56,
9,
43,
44,
-52,
-6,
-45,
34,
61,
30,
62,
-27,
52,
13,
-12,
-43,
-42,
37,
-29,
-78,
18,
-87,
39,
-36,
44,
24,
56,
-63,
-48,
-9,
17,
23,
-77,
-25,
72,
70,
44,
-77,
-39,
52,
33,
-46,
-63,
-75,
-76,
21,
22,
-64,
-83,
16,
9,
44,
39,
-15,
-82,
39,
-93,
-36,
-19,
13,
32,
-20,
0,
-45,
-29,
-26,
33,
-34,
15,
-82,
11,
33,
-33,
-39,
-26,
25,
80,
-23,
-15,
8,
-66,
-46,
57,
-22,
1,
-74,
-47,
71,
-8,
-7,
-37,
3,
39,
-63,
-33,
-47,
60,
-75,
47,
-23,
-13,
-20,
-27,
-26,
-5,
64,
93,
-3,
64,
1,
-37,
35,
-35,
47,
-58,
62,
-40,
-16,
-5,
33,
-42,
-56,
-53,
-1,
41,
-27,
-51,
-6,
23,
13,
-12,
14,
54,
17,
-6,
-19,
62,
90,
-19,
48,
43,
63,
-4,
-46,
41,
-49,
-73,
74,
-26,
-47,
-56,
32,
26,
-42,
-18,
-43,
-50,
6,
-41,
28,
73,
26,
-106,
-67,
59,
-63,
39,
23,
15,
-46,
47,
-18,
4,
-17,
-49,
-66,
-73,
0,
-35,
-38,
29,
-2,
-21,
72,
66,
34,
4,
41,
-28,
39,
-2,
10,
-2,
-52,
-7,
-33,
24,
-26,
-5,
44,
3,
61,
-54,
31,
9,
-1,
-56,
12,
-51,
-52,
-73,
63,
56,
-5,
6,
6,
39,
2,
4,
-65,
41,
-61,
39,
29,
48,
-46,
54,
30,
43,
46,
15,
0,
18,
-73,
-20,
14,
59,
0,
46,
-10,
-75,
-44,
-77,
41,
46,
-23,
-75,
40,
-46,
-39,
-46,
13,
-19,
1,
69,
-36,
36,
22,
42,
-79,
-59,
30,
-26,
-22,
54,
-23,
83,
41,
64,
44,
24,
40,
-45,
19,
-29,
21,
-39,
90,
-49,
-32,
42,
52,
4,
-14,
12,
-41,
40,
3,
15,
37,
-22,
-21,
47,
-40,
-59,
-66,
43,
26,
-51,
-4,
65,
-36,
50,
-10,
-49,
10,
20,
-59,
-41,
13,
56,
-43,
-24,
-52,
40,
20,
-61,
-56,
33,
69,
-75,
7,
16,
-41,
4,
-67,
-23,
-9,
-46,
40,
46,
-5,
8,
-15,
-36,
-16,
-55,
-8,
-29,
60,
88,
5,
58,
-29,
21,
-18,
0,
70,
3,
14,
25,
35,
14,
45,
-26,
-28,
62,
2,
51,
-21,
-36,
-2,
-45,
26,
-49,
18,
-41,
11,
-13,
-26,
-7,
-55,
7,
24,
-52,
17,
25,
-53,
11,
36,
19,
43,
42,
84,
-20,
6,
26,
-57,
19,
0,
-36,
-91,
29,
59,
25,
-36,
13,
33,
23,
-8,
-94,
-14,
11,
-76,
-45,
-53,
-7,
-60,
1,
46,
-56,
17,
-18,
22,
35,
-18,
13,
19,
21,
0,
36,
4,
-36,
-15,
13,
-20,
-24,
62,
-36,
33,
23,
13,
-7,
6,
-39,
26,
48,
50,
72,
73,
-23,
18,
53,
-28,
16,
61,
52,
74,
-10,
-50,
-3,
-51,
48,
-16,
-10,
-55,
11,
78,
-58,
33,
-81,
53,
-2,
-47,
37,
-30,
22,
-79,
-63,
-69,
-65,
40,
11,
79,
-5,
-59,
-38,
65,
48,
36,
-3,
29,
76,
-11,
54,
11,
-49,
-54,
-60,
-10,
-21,
-81,
29,
-53,
43,
-41,
-62,
19,
15,
-34,
0,
-33,
16,
-64,
-41,
5,
-9,
-13,
36,
-46,
52,
-6,
-51,
-49,
-46,
-6,
-26,
-85,
-2,
74,
21,
23,
-29,
26,
-45,
8,
-75,
21,
-64,
-60,
-8,
37,
70,
44,
-15,
-63,
-53,
34,
16,
15,
74,
60,
58,
29,
-47,
7,
47,
98,
39,
-27,
36,
-22,
-53,
-1,
-5,
7,
-6,
-46,
36,
-17,
-30,
-19,
87,
16,
-13,
-35,
48,
8,
-30,
-51,
-31,
31,
-53,
6,
51,
-30,
-31,
10,
-55,
-38,
60,
59,
-37,
39,
-11,
-8,
-16,
7,
44,
17,
-16,
20,
-9,
-59,
6,
-43,
20,
-43,
42,
-63,
30,
-25,
-46,
18,
-18,
-21,
-68,
33,
-5,
15,
23,
-69,
51,
14,
31,
-18,
-49,
41,
44,
-46,
-9,
-67,
-38,
14,
-60,
-6,
-25,
11,
-33,
25,
-30,
-52,
-10,
-43,
-47,
-52,
28,
60,
-36,
-16,
49,
-12,
15,
70,
36,
63,
57,
-31,
-49,
30,
72,
62,
-26,
20,
-42,
71,
-61,
3,
-20,
-25,
0,
-64,
24,
85,
48,
14,
-26,
19,
-45,
6,
48,
42,
-60,
12,
76,
16,
-12,
92,
86,
2,
67,
-39,
-34,
-19,
24,
-37,
-54,
83,
-44,
-30,
-32,
-30,
10,
-27,
39,
14,
47,
27,
50,
8,
41,
-4,
0,
-10,
-20,
-35,
50,
-55,
66,
63,
-44,
-38,
-30,
-49,
-45,
28,
7,
85,
-17,
19,
2,
42,
16,
-42,
-39,
48,
-14,
-26,
41,
-5,
67,
86,
61,
91,
49,
53,
55,
-54,
20,
6,
13,
62,
-30,
20,
-50,
-50,
37,
79,
-51,
70,
25,
-19,
37,
-69,
-52,
-24,
17,
19,
39,
71,
-41,
-8,
56,
-14,
-63,
7,
-33,
21,
-67,
-65,
16,
43,
13,
-25,
61,
15,
-51,
-4,
-79,
-85,
-18,
23,
7,
-44,
-79,
4,
53,
6,
11,
11,
-53,
-14,
23,
-49,
22,
5,
-2,
-34,
1,
16,
18,
-65,
-59,
21,
12,
13,
60,
9,
-49,
-42,
65,
24,
18,
66,
-47,
-27,
-72,
-21,
49,
54,
47,
-29,
61,
16,
-13,
45,
22,
-20,
66,
41,
-51,
-31,
-10,
-19,
-21,
-11,
6,
82,
-25,
61,
-34,
69,
-1,
-59,
32,
-7,
-4,
-53,
8,
83,
55,
83,
69,
-12,
-5,
70,
70,
78,
8,
11,
30,
52,
-55,
22,
14,
94,
5,
61,
-6,
42,
-6,
-56,
39,
-57,
10,
10,
0,
6,
24,
-67,
-30,
27,
-73,
-87,
38,
-99,
21,
30,
-37,
-24,
-18,
10,
-11,
7,
-111,
-78,
44,
31,
-75,
-25,
-34,
-23,
-65,
30,
-26,
67,
14,
-13,
-31,
28,
-8,
38,
3,
-51,
-6,
-51,
-5,
-15,
67,
-38,
74,
-26,
-18,
-44,
-59,
-33,
58,
-3,
-23,
10,
28,
-1,
76,
-54,
63,
-3,
-70,
-6,
38,
-70,
56,
76,
7,
62,
15,
5,
40,
-85,
-76,
7,
65,
-51,
-44,
-3,
60,
-60,
-53,
26,
24,
-49,
30,
-72,
49,
-28,
34,
41,
17,
-2,
15,
55,
62,
20,
-85,
-42,
48,
-26,
-26,
20,
-92,
47,
16,
-84,
9,
-34,
-36,
90,
5,
-40,
-51,
60,
-75,
-52,
-31,
-17,
43,
-4,
35,
12,
-39,
35,
-45,
-49,
-35,
35,
-11,
32,
54,
26,
94,
72,
-57,
-1,
15,
82,
46,
-23,
-69,
-5,
-23,
65,
40,
-2,
54,
4,
-66,
-15,
30,
-48,
39,
-18,
-10,
53,
-3,
-17,
0,
47,
57,
-20,
39,
-9,
-29,
-66,
-73,
33,
-75,
-26,
52,
21,
55,
55,
-30,
85,
-38,
57,
-1,
-48,
-17,
36,
-12,
86,
-42,
57,
77,
76,
-22,
47,
67,
17,
-36,
-58,
27,
83,
-45,
-1,
67,
49,
-15,
-70,
24,
-69,
2,
-10,
58,
15,
-13,
68,
-15,
17,
-9,
-13,
21,
-6,
-54,
36,
45,
-22,
19,
20,
-42,
13,
-78,
-51,
-65,
-83,
18,
-63,
0,
44,
-81,
-20,
-23,
-62,
42,
17,
-52,
2,
-19,
-37,
20,
-38,
31,
26,
-57,
-61,
-69,
28,
63,
-53,
24,
93,
46,
57,
76,
85,
11,
40,
38,
-48,
27,
14,
1,
52,
-38,
100,
15,
63,
-47,
17,
20,
49,
54,
21,
-6,
69,
-36,
37,
-33,
22,
6,
55,
75,
0,
-5,
-36,
-45,
10,
55,
43,
65,
78,
-22,
-64,
13,
5,
-20,
23,
-3,
-36,
11,
-16,
65,
56,
-59,
-56,
32,
2,
51,
64,
28,
53,
-67,
25,
78,
79,
41,
-34,
92,
11,
-24,
52,
67,
57,
58,
81,
-19,
57,
-39,
-16,
76,
41,
-69,
58,
-63,
-41,
-39,
7,
-15,
-25,
-27,
-69,
-9,
-53,
-15,
-9,
-60,
6,
8,
-84,
-25,
56,
-15,
46,
-46,
-47,
47,
1,
-29,
-40,
10,
-69,
28,
22,
-98,
-60,
44,
-46,
-48,
-23,
-63,
12,
-51,
21,
-5,
-12,
39,
0,
70,
59,
89,
31,
33,
12,
-51,
-26,
5,
-25,
-11,
-13,
-55,
47,
25,
49,
-30,
-7,
21,
63,
43,
55,
13,
22,
15,
-70,
-77,
-19,
3,
-39,
80,
-3,
-47,
-66,
44,
23,
-35,
-3,
-24,
-11,
79,
36,
-12,
-47,
-42,
11,
67,
-37,
13,
5,
-43,
-36,
32,
-42,
57,
61,
69,
0,
6,
2,
-95,
41,
21,
-28,
-46,
-67,
-33,
46,
30,
-70,
22,
9,
20,
-37,
-48,
-14,
-68,
63,
-2,
6,
-4,
44,
91,
-9,
-75,
-36,
49,
-50,
4,
-61,
-66,
-15,
-32,
-4,
-39,
-70,
-11,
-29,
58,
56,
57,
-58,
-48,
63,
-73,
-61,
-49,
-49,
17,
23,
49,
21,
34,
-19,
43,
65,
39,
-85,
45,
-40,
-6,
56,
51,
97,
24,
-49,
-67,
35,
-21,
1,
-65,
-65,
57,
82,
-35,
1,
-46,
-64,
61,
-49,
-1,
-12,
35,
54,
-7,
58,
10,
-73,
40,
-49,
-28,
51,
-29,
-107,
31,
44,
11,
-4,
-2,
-14,
-71,
-67,
-79,
-21,
26,
0,
-82,
-43,
42,
-84,
14,
11,
-51,
27,
-59,
23,
-6,
-9,
-29,
-66,
-22,
-6,
-33,
72,
55,
54,
54,
28,
-78,
11,
-65,
-67,
1,
-33,
1,
84,
36,
-24,
39,
72,
-44,
-53,
42,
46,
50,
33,
8,
13,
5,
-36,
-13,
-52,
-73,
-3,
2,
62,
-62,
-26,
17,
3,
13,
3,
39,
-7,
-47,
0,
-23,
-53,
87,
-55,
2,
7,
71,
47,
-49,
-26,
-58,
47,
-50,
-55,
-32,
68,
51,
50,
-78,
36,
35,
-29,
-35,
8,
-2,
-18,
-61,
59,
-24,
45,
-25,
15,
-16,
34,
-26,
-54,
-71,
3,
24,
43,
-44,
-10,
30,
-78,
9,
-87,
5,
6,
-92,
13,
-26,
-50,
36,
5,
66,
63,
11,
-7,
-23,
-63,
-75,
21,
20,
29,
-66,
-7,
-15,
-62,
-31,
-21,
-38,
-50,
-56,
-43,
41,
28,
-39,
-16,
-25,
17,
62,
56,
-49,
66,
-31,
-47,
-25,
53,
-43,
-13,
-13,
-5,
-42,
24,
71,
26,
39,
46,
43,
-52,
95,
28,
79,
82,
-5,
-17,
-41,
44,
-13,
-71,
29,
-52,
4,
9,
-14,
-28,
-39,
-49,
-37,
35,
47,
18,
-33,
2,
-5,
49,
61,
48,
17,
-100,
15,
-31,
-97,
28,
-51,
-18,
48,
22,
11,
-17;
