memory_initialization_radix=10;
memory_initialization_vector=
60,
-45,
0,
-5,
-70,
-9,
-11,
-19,
-29,
-65,
13,
-16,
-23,
52,
54,
35,
-71,
-55,
-53,
-59,
67,
-13,
-73,
10,
-49,
57,
-73,
23,
-86,
-53,
46,
29,
56,
57,
10,
43,
-73,
-2,
-90,
-88,
3,
-1,
55,
-55,
1,
-15,
50,
46,
-73,
46,
-53,
-44,
-67,
-24,
-45,
-65,
22,
-58,
-43,
-29,
-17,
-62,
-49,
10,
-85,
-36,
-16,
-52,
-66,
-68,
-44,
-52,
-6,
21,
-19,
60,
-71,
35,
-39,
-65,
23,
-27,
-1,
65,
-28,
-16,
-42,
-72,
-73,
-38,
-18,
-34,
8,
-23,
-57,
-39,
44,
-60,
-3,
-19,
-81,
-15,
-10,
13,
-74,
62,
79,
-3,
48,
-12,
48,
11,
-4,
44,
35,
-56,
-68,
-53,
-60,
62,
17,
-1,
80,
25,
68,
-27,
-7,
-20,
31,
34,
49,
-68,
47,
-51,
47,
-77,
41,
-61,
61,
-55,
-39,
-57,
-13,
3,
51,
16,
0,
46,
-54,
41,
52,
54,
-82,
8,
60,
-71,
-2,
-56,
-87,
-58,
-31,
11,
53,
-25,
-96,
-11,
-25,
59,
-11,
51,
36,
28,
-48,
57,
-25,
38,
35,
23,
-41,
-40,
43,
-7,
-2,
-70,
18,
21,
-51,
-6,
20,
-60,
-23,
66,
21,
-55,
21,
10,
-41,
48,
46,
-46,
-16,
-59,
51,
56,
-3,
-60,
-35,
-17,
17,
-23,
-26,
50,
42,
-50,
-62,
27,
-55,
44,
-40,
11,
40,
30,
0,
-27,
-14,
-54,
57,
62,
-7,
-53,
36,
-7,
-20,
-38,
43,
-46,
-55,
-39,
-64,
-22,
-9,
33,
-22,
50,
69,
-4,
-42,
68,
46,
15,
-45,
-41,
4,
12,
-15,
-11,
-93,
-10,
-8,
53,
-7,
-27,
-12,
33,
-39,
-14,
32,
-66,
-82,
-80,
46,
26,
-49,
0,
49,
52,
3,
70,
-50,
70,
-31,
29,
-62,
1,
-44,
-43,
-15,
39,
-79,
-9,
9,
-81,
-4,
17,
-3,
58,
-11,
-22,
-50,
11,
-43,
-45,
-24,
0,
-72,
-32,
-22,
26,
33,
24,
-1,
-62,
40,
5,
67,
51,
57,
64,
-32,
-31,
53,
40,
52,
18,
-54,
28,
-57,
3,
6,
61,
-45,
62,
-43,
50,
-58,
32,
4,
-64,
8,
-28,
-9,
-25,
7,
-59,
56,
-72,
-23,
54,
-37,
-10,
18,
63,
-47,
-14,
-14,
24,
-9,
-37,
9,
36,
29,
29,
38,
50,
48,
-59,
-36,
-9,
-62,
-22,
52,
-73,
59,
-7,
59,
-85,
40,
-12,
-5,
-35,
-63,
-26,
-78,
17,
-35,
-11,
59,
-21,
-60,
35,
62,
56,
-58,
45,
-53,
-11,
44,
37,
-58,
-9,
-12,
2,
-57,
42,
2,
3,
-36,
56,
65,
-58,
-7,
-44,
47,
34,
-41,
61,
51,
-21,
67,
32,
-53,
-8,
-21,
-25,
0,
23,
12,
65,
67,
-10,
32,
-30,
22,
-51,
-16,
-47,
51,
-29,
18,
55,
-23,
-17,
-60,
53,
-25,
-2,
56,
-17,
-23,
23,
-14,
-44,
14,
-16,
34,
1,
-68,
42,
-24,
-11,
37,
-48,
-76,
29,
30,
-49,
24,
-13,
-31,
36,
50,
28,
44,
23,
-8,
35,
4,
50,
14,
-3,
40,
35,
-86,
-29,
-13,
90,
73,
89,
15,
21,
47,
-20,
-75,
51,
38,
-40,
1,
59,
103,
80,
6,
91,
-10,
47,
-42,
72,
39,
35,
26,
73,
6,
-55,
32,
18,
41,
15,
-3,
-19,
19,
20,
35,
36,
49,
-15,
70,
-14,
60,
-21,
22,
-29,
9,
12,
100,
68,
27,
33,
-14,
-66,
-2,
-54,
78,
42,
78,
21,
16,
-10,
-12,
34,
-51,
-52,
4,
32,
11,
-7,
32,
83,
-24,
-1,
-53,
-9,
-69,
-77,
-1,
-40,
27,
0,
21,
55,
9,
20,
3,
-46,
6,
57,
20,
47,
-78,
-79,
11,
19,
-6,
-53,
38,
-13,
43,
44,
-71,
-14,
66,
19,
-9,
39,
20,
-48,
12,
-34,
-37,
-21,
11,
17,
-14,
37,
-21,
-40,
-60,
-61,
-3,
-87,
-24,
8,
27,
4,
-67,
-10,
51,
32,
-18,
67,
-37,
-9,
-39,
47,
-48,
39,
42,
39,
22,
-43,
25,
31,
28,
13,
9,
77,
-14,
-43,
9,
-14,
-32,
50,
9,
-41,
-40,
77,
-42,
-15,
-15,
-39,
6,
-47,
-47,
2,
53,
24,
25,
66,
57,
2,
-60,
59,
35,
-30,
34,
-49,
7,
-34,
67,
-61,
2,
56,
8,
-58,
78,
22,
36,
-80,
17,
-52,
71,
-70,
11,
-69,
3,
2,
6,
-12,
32,
45,
57,
-47,
-51,
-64,
14,
-96,
-88,
-79,
-7,
46,
62,
37,
61,
-34,
-9,
36,
-100,
-84,
25,
-89,
-74,
44,
-38,
74,
-32,
10,
-24,
-54,
-75,
-78,
4,
-82,
39,
-40,
-55,
-36,
61,
23,
22,
29,
14,
35,
49,
53,
9,
10,
-32,
-78,
34,
-31,
-8,
-32,
45,
-30,
17,
54,
-64,
-63,
49,
-8,
-58,
39,
-61,
-28,
32,
35,
-42,
-41,
-54,
1,
-36,
62,
42,
25,
-47,
18,
-49,
30,
-82,
56,
9,
65,
-46,
7,
3,
62,
-52,
5,
-65,
8,
-37,
9,
25,
-27,
15,
32,
-5,
-32,
-1,
-107,
-88,
-2,
-30,
-44,
-9,
-43,
-30,
20,
19,
1,
-24,
-68,
-57,
-71,
-2,
-66,
48,
-3,
-20,
-62,
-4,
40,
57,
-29,
-14,
-37,
18,
-10,
-5,
16,
-3,
-68,
10,
67,
66,
66,
-39,
40,
22,
47,
53,
49,
34,
53,
40,
40,
44,
-7,
40,
-61,
43,
-49,
70,
-11,
83,
19,
65,
-53,
51,
-22,
20,
-16,
-16,
-61,
18,
-7,
-69,
-56,
28,
66,
-11,
-7,
-11,
23,
-10,
-49,
-10,
28,
-20,
-38,
38,
10,
-3,
71,
-10,
-25,
-48,
30,
56,
13,
15,
58,
53,
-13,
-30,
-72,
-36,
-26,
-43,
-39,
-11,
54,
50,
-66,
-4,
-54,
-54,
38,
-89,
23,
60,
72,
52,
-44,
58,
-55,
-15,
26,
17,
35,
-51,
-2,
37,
26,
0,
38,
-37,
-16,
16,
61,
19,
38,
-11,
-6,
-79,
10,
-18,
-4,
-31,
76,
92,
-26,
-20,
-29,
-27,
-62,
46,
38,
-35,
-36,
8,
0,
83,
77,
-30,
10,
16,
57,
52,
-23,
50,
-52,
-26,
34,
-41,
53,
-44,
-6,
-34,
-51,
30,
-24,
11,
-72,
-8,
-8,
-60,
-35,
56,
5,
44,
22,
63,
-72,
17,
-37,
24,
-40,
57,
-41,
-24,
-13,
51,
10,
-46,
35,
8,
55,
-17,
81,
21,
54,
22,
31,
19,
-47,
0,
50,
-13,
24,
-19,
-44,
31,
-28,
11,
21,
26,
46,
43,
53,
56,
-11,
-31,
-39,
-81,
52,
-77,
1,
62,
79,
76,
71,
-61,
47,
-52,
46,
5,
-25,
15,
40,
0,
3,
68,
-37,
-72,
15,
-63,
28,
51,
-67,
27,
-12,
-74,
-14,
60,
-64,
32,
-4,
2,
22,
9,
22,
-49,
-33,
-55,
-36,
55,
66,
37,
-19,
52,
11,
-9,
-34,
27,
-43,
-30,
38,
-10,
-33,
-30,
-45,
84,
-20,
35,
-16,
-40,
-5,
11,
-58,
-8,
31,
-34,
-30,
81,
-18,
-33,
29,
-35,
13,
-11,
26,
-43,
-48,
-65,
24,
20,
-29,
-79,
-15,
5,
7,
51,
57,
-10,
64,
-51,
-18,
-24,
-10,
43,
-22,
-5,
-26,
73,
-9,
-61,
15,
-65,
56,
44,
-73,
18,
-25,
54,
-54,
-17,
49,
-9,
31,
1,
8,
-16,
54,
22,
45,
-64,
-19,
40,
38,
9,
-28,
58,
83,
91,
-35,
-12,
-61,
-9,
-70,
-59,
49,
51,
-9,
49,
9,
-22,
-68,
52,
-50,
14,
-64,
50,
-40,
-46,
-7,
25,
-15,
-17,
-4,
9,
66,
27,
-49,
21,
-31,
-64,
-35,
-7,
22,
-56,
-81,
-40,
37,
49,
-44,
-43,
-60,
-25,
25,
-48,
-18,
-66,
-58,
-61,
-79,
-31,
-56,
-9,
3,
40,
78,
-13,
34,
26,
38,
10,
-39,
-20,
-7,
-18,
-19,
51,
30,
27,
2,
27,
44,
9,
29,
11,
8,
48,
-61,
22,
-96,
-53,
92,
-18,
-8,
46,
36,
9,
-25,
-20,
-24,
-17,
59,
11,
11,
90,
-18,
-59,
-69,
63,
24,
-48,
48,
-57,
26,
12,
-27,
21,
24,
75,
-48,
-39,
27,
-39,
48,
27,
-5,
3,
-41,
20,
-35,
-29,
-43,
-16,
-40,
-21,
19,
43,
43,
-16,
12,
28,
74,
50,
66,
64,
32,
-17,
48,
-42,
30,
29,
26,
-31,
29,
53,
15,
-71,
-40,
-66,
-29,
15,
-38,
47,
-30,
-82,
4,
-53,
23,
-69,
-53,
-10,
-72,
-52,
-32,
52,
65,
-32,
36,
-36,
-21,
-43,
-57,
-57,
-31,
-49,
-17,
-62,
8,
20,
32,
23,
45,
-10,
-50,
46,
13,
78,
-36,
-45,
-27,
-78,
-112,
-16,
57,
57,
68,
-25,
48,
79,
30,
-12,
-13,
8,
9,
-14,
-31,
-27,
-4,
-33,
-1,
12,
0,
33,
-1,
66,
-26,
10,
-73,
52,
35,
16,
-10,
89,
83,
52,
24,
12,
57,
22,
-35,
58,
57,
53,
4,
-53,
23,
-49,
65,
66,
-33,
-33,
-11,
41,
42,
8,
-10,
-58,
-74,
-24,
-6,
-9,
-6,
-50,
12,
8,
70,
57,
35,
23,
51,
41,
64,
1,
55,
-11,
-8,
-42,
30,
45,
-30,
2,
12,
26,
-35,
38,
-8,
-2,
-47,
-47,
36,
21,
21,
-38,
-76,
37,
-24,
53,
71,
-70,
-12,
72,
57,
-30,
12,
-32,
2,
-56,
39,
-58,
0,
-48,
11,
-46,
8,
-69,
-35,
50,
-43,
35,
12,
54,
-16,
-37,
11,
1,
71,
-7,
-2,
79,
12,
-52,
-43,
-32,
68,
41,
-9,
44,
41,
9,
95,
65,
45,
38,
-69,
22,
4,
-35,
-12,
-39,
11,
-10,
10,
11,
62,
-14,
-42,
-59,
-2,
-29,
-56,
15,
-99,
-8,
-8,
-79,
57,
-66,
45,
53,
-28,
-37,
-61,
-75,
-16,
-15,
27,
7,
-47,
-29,
26,
-46,
-4,
-61,
-45,
68,
65,
-53,
-58,
-32,
-73,
29,
-24,
-28,
1,
2,
12,
-29,
49,
60,
-21,
-69,
28,
-21,
-35,
-32,
23,
45,
69,
70,
60,
27,
-63,
-56,
1,
75,
-48,
-63,
47,
4,
-51,
70,
36,
-50,
26,
-59,
70,
-33,
28,
65,
6,
63,
-54,
-46,
40,
-47,
-45,
-47,
-73,
-3,
77,
30,
-40,
-63,
3,
38,
48,
58,
-52,
13,
-42,
75,
-28,
-30,
54,
33,
-54,
-81,
-54,
-13,
-58,
-37,
-49,
-71,
-63,
28,
-15,
-62,
-63,
45,
26,
-8,
44,
25,
33,
-49,
58,
-66,
-41,
-1,
14,
67,
-14,
-46,
40,
-42,
-22,
-7,
-36,
-49,
60,
50,
-11,
81,
-22,
7,
47,
-44,
3,
-13,
52,
82,
28,
59,
-30,
10,
-14,
58,
45,
-45,
-18,
34,
-36,
-4,
-39,
-37,
50,
10,
-28,
-3,
-59,
-14,
43,
-2,
-75,
61,
-2,
25,
-2,
-25,
54,
-41,
-20,
12,
-9,
22,
-7,
-59,
-44,
75,
29,
-60,
-50,
-36,
32,
-82,
-50,
23,
-1,
8,
-15,
30,
32,
46,
-4,
-8,
-10,
44,
-40,
27,
44,
-11,
24,
-8,
50,
-64,
41,
-36,
34,
-32,
-67,
-10,
-19,
-43,
80,
77,
67,
5,
15,
-52,
6,
52,
39,
-68,
73,
80,
-23,
-58,
4,
-46,
7,
-41,
67,
19,
54,
-65,
-20,
52,
-56,
41,
21,
-74,
-20,
31,
-66,
68,
69,
8,
11,
-85,
-34,
-3,
-47,
-64,
-21,
18,
-27,
-12,
37,
33,
-75,
-95,
-50,
24,
16,
57,
-11,
42,
90,
0,
-17,
-28,
-50,
48,
10,
6,
-21,
43,
3,
-42,
5,
14,
1,
-56,
-64,
-38,
-62,
69,
-1,
60,
-64,
60,
-1,
62,
79,
44,
5,
-4,
-15,
14,
-28,
69,
-63,
47,
-35,
-18,
26,
63,
64,
-62,
18,
1,
-38,
-41,
-79,
13,
10,
-24,
-10,
33,
58,
-67,
-5,
14,
31,
-73,
32,
-64,
-24,
-39,
41,
74,
66,
54,
-3,
-80,
-65,
13,
66,
3,
-47,
7,
-31,
-57,
68,
19,
14,
-25,
77,
62,
61,
-18,
-58,
-45,
65,
25,
29,
-22,
44,
0,
-2,
55,
4,
-48,
66,
-64,
45,
84,
-20,
77,
31,
77,
-57,
33,
-14,
61,
-41,
-1,
-7,
-28,
-28,
-69,
-32,
-41,
21,
-32,
-10,
-3,
42,
-35,
56,
14,
-31,
-53,
-63,
-68,
11,
-39,
-2,
37,
29,
-83,
44,
-6,
51,
65,
-41,
62,
49,
32,
-28,
-67,
-42,
9,
23,
-55,
-48,
58,
31,
46,
-70,
-77,
-25,
-28,
-80,
26,
-76,
-50,
55,
51,
69,
47,
-9,
-80,
-27,
-30,
-12,
-39,
-42,
-52,
22,
-53,
42,
10,
-34,
-24,
-62,
-71,
41,
-1,
26,
67,
31,
18,
62,
73,
20,
37,
20,
44,
34,
14,
-24,
17,
-48,
41,
41,
7,
-18,
41,
18,
60,
-45,
7,
-44,
-46,
25,
41,
-1,
-71,
9,
45,
-15,
25,
42,
37,
61,
-62,
-32,
-22,
-40,
26,
-50,
-46,
3,
-21,
-65,
63,
4,
70,
45,
68,
-43,
-46,
-31,
-87,
30,
-51,
23,
-57,
-57,
11,
-21,
-2,
86,
-24,
56,
-24,
-84,
-61,
24,
-49,
47,
3,
-10,
-66,
-17,
-66,
48,
-37,
26,
-47,
10,
-50,
-4,
-40,
-57,
8,
19,
-71,
-65,
20,
56,
54,
-36,
-36,
63,
-1,
-25,
17,
22,
16,
-79,
12,
-48,
14,
-30,
51,
-34,
5,
-35,
30,
-3,
34,
55,
-98,
-12,
-47,
-65,
-19,
21,
74,
15,
-3,
-20,
-27,
-20,
-3,
-54,
33,
100,
40,
-92,
-23,
-50,
61,
-29,
-20,
-6,
33,
12,
-30,
27,
27,
-56,
23,
41,
-25,
-33,
-55,
40,
1,
55,
48,
51,
-29,
47,
-31,
-9,
86,
103,
-17,
-5,
63,
-32,
81,
-36,
69,
35,
9,
84,
-51,
44,
27,
-28,
33,
-51,
-46,
-57,
20,
67,
-23,
33,
64,
-31,
60,
11,
-47,
72,
-23,
14,
-73,
55,
-35,
46,
-34,
9,
31,
28,
-19,
12,
16,
-60,
-17,
-47,
-14,
-4,
-43,
-46,
-53,
20,
43,
-23,
-35,
-80,
-61,
-44,
-66,
51,
41,
-3,
50,
14,
-26,
50,
10,
44,
55,
-44,
30,
-66,
-19,
-40,
-47,
35,
-56,
-51,
-68,
1,
17,
4,
-70,
-66,
-62,
-59,
-34,
-56,
-39,
-38,
71,
-57,
-34,
-30,
-1,
19,
-43,
62,
9,
59,
-49,
29,
1,
41,
18,
4,
16,
-4,
53,
-32,
17,
47,
-42,
6,
-4,
-51,
36,
-83,
-24,
15,
40,
-29,
-10,
-10,
18,
82,
-2,
78,
29,
40,
-47,
26,
-36,
0,
-46,
3,
-8,
-20,
62,
82,
24,
13,
-52,
-36,
-70,
-11,
32,
33,
-61,
20,
13,
34,
-2,
-14,
34,
71,
-7,
31,
74,
-45,
54,
-67,
-38,
56,
7,
-54,
-10,
-15,
17,
62,
-50,
-33,
-47,
-19,
-39,
-35,
59,
-68,
-34,
78,
-38,
36,
60,
33,
9,
0,
-74,
39,
-4,
35,
-71,
56,
19,
52,
-41,
25,
15,
62,
26,
-23,
-50,
3;
