memory_initialization_radix=10;
memory_initialization_vector=
41,
59,
25,
-1,
6,
51,
-72,
48,
22,
-28,
7,
32,
-64,
45,
20,
-1,
-31,
-63,
45,
-3,
-19,
-80,
-23,
16,
-44,
24,
7,
21,
-59,
-79,
56,
-21,
-46,
34,
12,
32,
-34,
63,
-24,
-3,
-51,
-54,
33,
37,
-32,
93,
-10,
-14,
65,
-24,
-21,
-97,
79,
-9,
52,
-44,
-32,
81,
66,
-68,
-68,
-41,
-36,
84,
2,
77,
20,
9,
-56,
-1,
-57,
-13,
63,
12,
-20,
-13,
75,
-85,
67,
-62,
59,
24,
-20,
23,
14,
-9,
84,
34,
26,
-20,
-34,
-8,
-42,
-73,
-55,
-11,
14,
53,
99,
-32,
-87,
-43,
21,
-15,
-57,
39,
69,
37,
-50,
19,
6,
-44,
-22,
28,
-8,
-58,
50,
36,
-67,
-54,
23,
-65,
-69,
66,
23,
0,
13,
1,
16,
7,
26,
-48,
-25,
27,
41,
26,
-10,
-42,
-71,
-30,
-60,
7,
-65,
-67,
-28,
-82,
57,
-57,
-53,
-88,
0,
34,
-93,
-7,
12,
-20,
9,
-23,
-12,
8,
-77,
-5,
13,
-36,
-52,
0,
-23,
-38,
3,
-10,
-1,
-10,
64,
5,
-89,
-29,
-32,
-8,
-23,
9,
-18,
-30,
-68,
-1,
-57,
-16,
-6,
-70,
-80,
27,
-40,
60,
5,
39,
-58,
30,
17,
24,
63,
-65,
-84,
33,
25,
14,
27,
44,
32,
-39,
9,
-27,
94,
59,
1,
-16,
-60,
37,
-64,
18,
-64,
31,
12,
4,
18,
17,
-3,
-72,
-40,
56,
69,
-37,
53,
55,
-58,
-30,
-42,
38,
17,
-71,
-8,
-16,
-20,
-18,
20,
1,
-57,
-31,
-10,
8,
-68,
-28,
28,
73,
37,
20,
14,
7,
7,
27,
-25,
18,
7,
-30,
58,
-12,
-15,
62,
-21,
6,
29,
-51,
33,
-30,
24,
-11,
-71,
-41,
-57,
28,
62,
-18,
43,
-42,
-30,
-1,
-17,
24,
72,
-28,
-10,
34,
1,
-18,
12,
-44,
22,
35,
29,
-56,
43,
-76,
22,
51,
-13,
-9,
16,
-61,
-46,
34,
44,
0,
-13,
-5,
-59,
-20,
60,
35,
-40,
40,
-9,
-29,
-35,
52,
57,
-20,
64,
-43,
30,
63,
-40,
23,
-34,
44,
-24,
27,
-25,
-31,
59,
34,
23,
-41,
-60,
-3,
29,
2,
35,
43,
-34,
35,
22,
73,
-11,
-49,
52,
-75,
-16,
70,
26,
-36,
18,
-11,
-15,
-58,
1,
43,
39,
23,
26,
-43,
-52,
-68,
-35,
-3,
-20,
11,
64,
-39,
33,
37,
-10,
56,
-37,
68,
-5,
-39,
-48,
17,
-52,
-68,
11,
2,
42,
23,
9,
-39,
-55,
38,
-32,
-17,
18,
36,
43,
-30,
-76,
11,
-5,
-72,
-42,
-52,
56,
32,
-64,
-11,
17,
31,
-37,
36,
22,
45,
-59,
36,
-3,
-28,
36,
14,
24,
-53,
-13,
42,
27,
-14,
-59,
-40,
-32,
-62,
-20,
18,
29,
46,
26,
-24,
-26,
-23,
3,
50,
68,
-39,
17,
64,
65,
40,
17,
32,
43,
-38,
-44,
36,
41,
56,
73,
10,
40,
96,
-34,
-45,
17,
-41,
-46,
15,
-2,
58,
-4,
16,
65,
53,
23,
64,
42,
34,
-40,
-20,
55,
48,
56,
37,
-1,
-3,
-57,
-10,
19,
8,
28,
-39,
-19,
-4,
3,
-6,
-12,
-83,
24,
-72,
11,
-24,
52,
56,
66,
-11,
11,
27,
-45,
-86,
-77,
-81,
-63,
21,
35,
-55,
67,
-18,
34,
44,
-72,
-5,
-56,
23,
-47,
40,
-42,
-12,
-30,
20,
14,
8,
6,
26,
-51,
42,
62,
-68,
34,
-42,
-18,
-23,
-51,
-43,
-36,
-30,
-7,
-50,
-40,
-60,
18,
-54,
27,
-66,
-43,
-88,
25,
20,
-18,
-15,
58,
-3,
-64,
-39,
69,
27,
-78,
-74,
19,
62,
59,
23,
-9,
53,
84,
65,
61,
19,
43,
-78,
52,
-74,
48,
-7,
-5,
-44,
-86,
55,
-33,
33,
-32,
13,
46,
26,
-16,
9,
60,
14,
-64,
35,
74,
5,
25,
37,
-5,
-41,
-28,
20,
70,
-25,
36,
-41,
56,
-46,
-68,
-1,
-21,
-61,
-74,
-25,
-71,
-44,
-22,
-20,
-53,
36,
5,
-97,
-49,
70,
-70,
73,
30,
-23,
-6,
32,
-42,
-50,
22,
-34,
59,
-58,
-44,
-31,
31,
26,
47,
46,
-56,
37,
-59,
-5,
81,
3,
-50,
-62,
-67,
19,
41,
-20,
41,
39,
70,
-23,
-80,
46,
-53,
-48,
14,
32,
30,
-19,
-30,
32,
-15,
17,
-17,
-16,
-30,
-52,
-90,
49,
-57,
43,
-34,
42,
-49,
26,
-49,
54,
36,
-41,
68,
20,
50,
9,
-31,
57,
0,
42,
71,
-47,
80,
-5,
88,
48,
-45,
5,
47,
-54,
45,
77,
-16,
-37,
73,
50,
-37,
-22,
-30,
-26,
-7,
-45,
20,
-60,
-69,
-48,
-53,
21,
-40,
-46,
-66,
20,
-15,
-69,
8,
-34,
-86,
-31,
-5,
-75,
52,
62,
46,
-16,
68,
43,
-7,
-20,
-89,
42,
31,
-3,
59,
-61,
48,
-72,
51,
-39,
3,
20,
-2,
66,
3,
31,
-12,
-39,
-51,
-40,
-16,
-22,
-19,
-101,
19,
71,
47,
-29,
-16,
18,
-18,
-41,
53,
48,
1,
-71,
6,
37,
-36,
40,
51,
-12,
-1,
44,
72,
55,
-22,
72,
39,
-46,
-20,
5,
-28,
11,
-29,
-32,
-33,
-19,
54,
100,
-29,
58,
60,
25,
40,
45,
56,
-65,
74,
-57,
-44,
-25,
-50,
-35,
-6,
-12,
32,
63,
4,
-45,
35,
35,
-48,
2,
-1,
-5,
-5,
31,
-13,
28,
-3,
-49,
-58,
30,
3,
33,
-38,
11,
53,
-64,
-14,
48,
-45,
-7,
0,
63,
-23,
75,
-13,
1,
31,
93,
-43,
52,
0,
35,
-52,
-51,
-48,
8,
55,
40,
-11,
-25,
-40,
24,
-19,
50,
-42,
-36,
32,
11,
4,
4,
-47,
23,
-59,
-5,
-46,
-38,
-30,
-12,
-26,
16,
37,
-20,
33,
-7,
56,
-36,
-3,
50,
-32,
-23,
59,
50,
-65,
-55,
14,
-63,
23,
48,
32,
73,
12,
10,
45,
54,
25,
73,
41,
-17,
22,
-12,
26,
46,
30,
-16,
24,
-29,
48,
-2,
-34,
8,
28,
32,
-68,
67,
61,
-1,
65,
-30,
-92,
-9,
72,
66,
11,
61,
-68,
-68,
46,
-13,
-7,
-86,
-8,
65,
-24,
56,
60,
-21,
69,
42,
-32,
-53,
-51,
8,
0,
-44,
49,
-70,
3,
-63,
33,
-39,
-5,
16,
59,
3,
6,
73,
-35,
-52,
-46,
21,
-55,
-12,
37,
10,
-56,
18,
54,
0,
-20,
46,
67,
12,
9,
-13,
51,
42,
32,
-63,
-53,
-23,
-40,
22,
-59,
67,
78,
-18,
-32,
-49,
54,
17,
40,
-82,
-61,
21,
-39,
-3,
10,
10,
51,
-32,
-24,
37,
4,
-21,
-84,
-33,
23,
29,
54,
6,
61,
12,
-55,
-68,
27,
28,
14,
29,
41,
-15,
17,
60,
86,
-47,
-61,
41,
0,
44,
-6,
-31,
57,
-12,
-46,
-33,
55,
77,
-1,
-1,
-11,
-8,
-12,
-13,
29,
-17,
-55,
-42,
17,
-44,
-51,
-27,
64,
28,
20,
31,
8,
63,
-6,
-62,
32,
13,
65,
15,
-56,
-69,
42,
38,
52,
14,
49,
-15,
3,
-63,
1,
-5,
-5,
-54,
-44,
30,
-1,
41,
30,
-50,
-55,
5,
39,
28,
28,
14,
-2,
-51,
-12,
-4,
-25,
77,
-66,
11,
10,
-5,
-44,
-1,
-63,
38,
38,
3,
-70,
15,
0,
-74,
-71,
-57,
-25,
-17,
24,
44,
-30,
-73,
-39,
16,
29,
-48,
54,
-31,
39,
80,
15,
60,
-24,
50,
64,
35,
7,
1,
39,
-87,
-23,
42,
-27,
-40,
33,
-60,
41,
29,
69,
-38,
96,
-7,
-66,
-23,
42,
45,
-48,
-1,
-65,
-20,
-47,
43,
93,
5,
53,
-21,
-50,
-24,
9,
69,
-3,
-59,
-54,
-24,
79,
-35,
79,
-15,
-9,
-24,
-29,
-55,
-68,
34,
55,
-26,
-68,
3,
-81,
-31,
18,
49,
37,
4,
40,
-53,
0,
38,
-69,
0,
-2,
-74,
4,
85,
4,
6,
-6,
-73,
5,
46,
16,
60,
-4,
47,
-32,
17,
37,
46,
-9,
51,
-77,
-42,
-19,
-45,
48,
20,
-55,
23,
-28,
-27,
56,
60,
36,
-35,
-60,
39,
45,
-65,
44,
-39,
-69,
-11,
31,
55,
-62,
-32,
-17,
16,
-60,
-11,
73,
-5,
-21,
7,
31,
34,
-12,
-13,
15,
-50,
-46,
-19,
39,
-27,
7,
-41,
68,
-42,
-55,
-42,
-17,
75,
59,
74,
80,
28,
47,
-12,
39,
-56,
30,
-52,
-77,
49,
-48,
10,
-7,
9,
-48,
-102,
-26,
64,
-54,
-16,
-19,
-42,
41,
32,
-49,
-31,
62,
-52,
51,
-52,
40,
-3,
-16,
-34,
14,
35,
20,
5,
6,
20,
-81,
23,
-58,
-48,
-25,
72,
28,
7,
-19,
-2,
-48,
27,
-24,
-35,
74,
-34,
28,
46,
14,
-11,
35,
34,
52,
33,
39,
-34,
55,
-55,
-36,
72,
64,
57,
-7,
-8,
26,
57,
-31,
-16,
91,
17,
5,
-9,
-16,
-44,
26,
66,
13,
72,
-57,
-45,
6,
68,
-8,
-36,
-10,
9,
-6,
61,
17,
51,
-39,
17,
18,
2,
46,
72,
-58,
-29,
6,
18,
47,
-6,
23,
18,
54,
-66,
13,
16,
46,
22,
-22,
-23,
-12,
-39,
-47,
34,
46,
-16,
-32,
32,
-18,
20,
-36,
-54,
-39,
-17,
11,
26,
10,
34,
-14,
-61,
39,
25,
-37,
53,
-56,
-79,
61,
-6,
1,
-24,
-23,
41,
21,
-12,
47,
-50,
-37,
-89,
-12,
-35,
68,
28,
-4,
29,
-42,
34,
17,
9,
-38,
80,
-54,
-14,
54,
-19,
42,
-41,
64,
-42,
-19,
2,
41,
-6,
46,
14,
-41,
-9,
37,
-60,
10,
-50,
19,
-36,
-58,
-4,
-29,
8,
-36,
29,
-82,
-56,
-17,
-24,
-49,
-5,
43,
-22,
-17,
30,
59,
-87,
23,
-7,
42,
88,
17,
45,
68,
-39,
54,
33,
6,
57,
-8,
16,
95,
-21,
62,
-53,
-16,
73,
48,
-80,
19,
-54,
93,
35,
18,
23,
-1,
-48,
12,
64,
25,
14,
2,
83,
75,
44,
102,
67,
15,
-53,
32,
15,
10,
48,
-70,
-57,
4,
92,
62,
-11,
52,
-2,
31,
29,
16,
-3,
30,
-75,
6,
-26,
65,
-3,
53,
35,
-36,
33,
44,
-4,
-32,
-26,
10,
-17,
36,
-18,
48,
-58,
-35,
-49,
-2,
-22,
16,
53,
36,
23,
-6,
-32,
-51,
-24,
-32,
-59,
20,
-49,
-43,
71,
-67,
11,
-32,
46,
-50,
-75,
-25,
23,
8,
65,
-28,
-28,
-65,
-20,
24,
-28,
-56,
34,
-79,
45,
-70,
51,
31,
-22,
6,
33,
32,
-58,
25,
61,
-81,
-69,
51,
34,
-75,
-34,
-40,
-9,
12,
55,
28,
-29,
-58,
25,
44,
-35,
-57,
-59,
17,
9,
3,
-52,
41,
-39,
20,
-9,
-68,
-16,
-12,
-26,
-52,
-18,
2,
-67,
-30,
-64,
8,
-16,
-37,
-61,
-27,
60,
6,
-83,
-4,
-34,
-25,
46,
48,
1,
72,
-75,
-63,
23,
-37,
-49,
-55,
-13,
17,
-42,
37,
0,
18,
-31,
17,
-37,
-37,
-35,
-57,
-59,
-44,
-48,
-43,
-6,
30,
8,
-3,
-7,
-67,
5,
-54,
15,
60,
-68,
-32,
61,
-24,
3,
47,
8,
36,
-22,
22,
-16,
-58,
12,
-82,
7,
-45,
29,
14,
43,
68,
22,
-3,
9,
9,
-43,
21,
-28,
67,
-48,
36,
1,
9,
47,
18,
-13,
-70,
61,
-54,
-17,
-54,
-64,
23,
71,
-21,
56,
0,
-42,
0,
16,
-31,
36,
29,
-28,
-13,
51,
-34,
-44,
-46,
5,
13,
77,
-42,
46,
-72,
78,
38,
-55,
33,
11,
-19,
-58,
-43,
-36,
13,
-32,
11,
-41,
-5,
53,
56,
3,
-35,
-48,
-57,
13,
51,
-47,
15,
-20,
-61,
-2,
-24,
-30,
-65,
55,
-64,
40,
-34,
43,
10,
66,
-32,
56,
-65,
-61,
-50,
19,
-70,
6,
9,
41,
1,
-22,
61,
1,
38,
-30,
-67,
54,
-6,
38,
-39,
-23,
-29,
-25,
-11,
-98,
18,
0,
49,
-61,
58,
40,
4,
19,
-26,
-64,
-87,
16,
-49,
-9,
-45,
-15,
-66,
-65,
16,
-22,
-63,
-14,
-2,
78,
54,
58,
42,
43,
36,
17,
30,
-83,
10,
53,
57,
52,
-56,
46,
32,
40,
-68,
54,
-47,
-34,
-15,
57,
-40,
0,
-40,
-47,
-61,
-2,
51,
25,
38,
5,
-3,
-46,
6,
-10,
25,
28,
1,
-3,
-66,
-15,
-43,
52,
17,
8,
-56,
-46,
-33,
65,
1,
52,
-16,
-10,
36,
-69,
14,
-74,
66,
-65,
-64,
4,
34,
-63,
-40,
62,
-73,
43,
-74,
62,
45,
-70,
-14,
37,
-16,
-36,
-58,
-54,
15,
-63,
-6,
-28,
21,
21,
50,
-47,
-11,
-30,
-43,
65,
-57,
59,
69,
25,
55,
-23,
-13,
6,
22,
54,
70,
-42,
-47,
19,
-41,
56,
32,
-37,
-41,
-26,
30,
-60,
-3,
-59,
-11,
24,
29,
20,
45,
21,
-10,
15,
-1,
-47,
-27,
-20,
28,
-67,
-47,
-86,
-15,
-34,
-40,
40,
68,
52,
41,
-47,
-50,
-47,
55,
-77,
16,
69,
49,
-19,
38,
63,
-9,
-25,
-1,
27,
-78,
-31,
-33,
53,
55,
49,
-44,
18,
-19,
32,
-36,
-1,
26,
-84,
-24,
58,
-51,
-14,
-26,
4,
2,
32,
-55,
60,
-80,
-76,
-15,
-8,
27,
-36,
12,
-66,
2,
34,
-2,
24,
-42,
91,
24,
73,
4,
-35,
50,
-49,
19,
-31,
29,
60,
67,
-70,
-32,
-57,
-78,
32,
-28,
-72,
58,
44,
45,
-58,
-26,
38,
22,
51,
-70,
21,
20,
52,
24,
-24,
62,
15,
-61,
21,
57,
21,
-32,
-2,
-34,
-37,
-32,
-18,
48,
-65,
-7,
55,
43,
-4,
-26,
-20,
-48,
16,
63,
46,
-55,
26,
38,
73,
9,
36,
-48,
50,
20,
-4,
-56,
49,
-56,
1,
-72,
-48,
25,
-35,
29,
-13,
-71,
53,
52,
66,
-30,
31,
65,
8,
-32,
13,
-54,
6,
-80,
26,
10,
85,
9,
-15,
9,
-14,
52,
30,
25,
70,
-40,
23,
8,
53,
32,
38,
36,
25,
0,
-22,
50,
-82,
10,
58,
11,
26,
-20,
-92,
25,
-46,
78,
-67,
-58,
33,
-5,
27,
51,
-12,
24,
-44,
-58,
-79,
-51,
-7,
-29,
-15,
-9,
45,
78,
63,
-33,
-64,
-16,
33,
-15,
-30,
-10,
15,
51,
1,
48,
43,
21,
58,
-36,
1,
43,
-49,
-31,
41,
53,
-48,
-45,
48,
7,
-9,
60,
62,
-20,
12,
10,
-28,
-17,
8,
-74,
12,
1,
-57,
-21,
29,
-51,
-71,
-51,
3,
-18,
-77,
34,
25,
11,
24,
74,
69,
-54,
19,
-45,
49,
32,
14,
-55,
-44,
16,
44,
10,
-27,
47,
20,
53,
-2,
14,
19,
-12,
39,
-59,
2,
68,
69,
41,
-31,
4,
-25,
54,
-1,
25,
-75,
-46,
-43,
21,
-62,
56,
90,
41,
31,
63,
64,
-41,
64,
43,
-1,
-47,
-7,
82,
-31,
56,
92,
0,
78,
80,
54,
6,
-42,
54,
39;
