memory_initialization_radix=10;
memory_initialization_vector=
-37,
1,
10,
-52,
-10,
38,
-48,
-54,
33,
65,
-35,
-33,
23,
-23,
-9,
-14,
-46,
0,
49,
-56,
49,
26,
-30,
42,
61,
41,
36,
-75,
55,
24,
51,
-26,
-37,
-40,
-64,
55,
-46,
-38,
12,
26,
11,
69,
-60,
43,
-71,
34,
-51,
-40,
-44,
21,
17,
-13,
-56,
-75,
-104,
64,
-37,
-67,
21,
13,
22,
19,
-1,
-34,
-39,
-59,
51,
21,
9,
29,
2,
39,
24,
43,
13,
8,
-30,
43,
21,
-33,
32,
3,
-18,
-18,
-81,
-13,
-87,
-13,
-49,
11,
-5,
-29,
85,
-6,
-59,
-62,
40,
3,
-57,
-54,
5,
59,
8,
-32,
71,
2,
38,
-70,
-12,
-23,
49,
-34,
-5,
40,
-40,
9,
-42,
-56,
4,
0,
-21,
-50,
12,
83,
23,
-3,
48,
-36,
10,
-55,
-63,
29,
-14,
-76,
30,
-18,
31,
-15,
-22,
46,
-24,
-79,
-9,
66,
-33,
-37,
16,
50,
-47,
-25,
-76,
-59,
-12,
13,
50,
51,
-40,
55,
-11,
13,
-49,
-67,
33,
73,
-51,
7,
-52,
-6,
-64,
-18,
43,
-33,
57,
64,
62,
34,
-8,
30,
82,
-9,
17,
-18,
91,
6,
-12,
-42,
37,
-4,
-17,
-20,
79,
23,
16,
14,
-12,
-45,
80,
9,
-82,
43,
-32,
-12,
14,
6,
-37,
26,
48,
42,
-24,
-52,
6,
-77,
-52,
-42,
48,
-37,
5,
33,
20,
49,
-3,
-14,
9,
-92,
9,
0,
-57,
-65,
-41,
59,
56,
-23,
68,
-77,
54,
-17,
-58,
57,
43,
-101,
7,
-64,
-15,
47,
-19,
-35,
-43,
-116,
-75,
-85,
-72,
-14,
-9,
38,
34,
13,
40,
68,
-45,
20,
-45,
-40,
-25,
49,
-84,
-66,
-64,
-55,
-65,
62,
-72,
45,
-63,
-28,
-9,
-30,
-6,
-13,
-68,
-53,
43,
11,
-11,
46,
-9,
-55,
2,
17,
-41,
-57,
-17,
-24,
-44,
-63,
-22,
-13,
61,
-26,
-41,
49,
-6,
-35,
73,
-17,
-41,
-31,
22,
-50,
-39,
-18,
-42,
43,
27,
-74,
-46,
58,
1,
30,
0,
47,
25,
-19,
12,
35,
32,
-19,
65,
-32,
-40,
38,
-6,
47,
-17,
45,
-7,
-26,
-1,
-60,
36,
-14,
77,
25,
-38,
-10,
-65,
-11,
-56,
34,
62,
72,
-28,
40,
-42,
-32,
-5,
-43,
51,
29,
-51,
-46,
-32,
56,
51,
48,
54,
-43,
-47,
-29,
29,
-9,
-33,
-16,
40,
-25,
-11,
-36,
-3,
21,
-19,
76,
0,
0,
42,
33,
-52,
47,
-8,
18,
-57,
-1,
11,
-21,
-6,
55,
-80,
42,
-20,
-17,
53,
-14,
59,
40,
-31,
-8,
-17,
-74,
-66,
56,
55,
6,
-4,
12,
-41,
54,
-54,
-8,
44,
-33,
71,
-24,
50,
-24,
-4,
51,
37,
18,
-60,
58,
24,
0,
-30,
84,
0,
-20,
-58,
-2,
15,
-45,
62,
69,
-38,
-26,
-83,
28,
-32,
49,
37,
-58,
-46,
-63,
-1,
-70,
60,
-48,
-50,
-56,
-70,
-91,
-49,
15,
-9,
-51,
25,
65,
-26,
48,
42,
-56,
15,
-84,
-11,
31,
40,
-57,
-6,
-6,
25,
62,
-39,
-31,
33,
-2,
45,
-59,
56,
55,
19,
26,
-28,
10,
-60,
-13,
-51,
-51,
71,
45,
30,
-53,
22,
47,
29,
-68,
52,
35,
-18,
56,
-53,
8,
-2,
-23,
18,
-36,
-88,
23,
5,
7,
66,
56,
80,
60,
72,
-6,
13,
41,
-44,
-51,
-51,
-71,
-74,
52,
14,
52,
61,
-29,
-10,
-16,
24,
-34,
54,
-40,
-28,
55,
31,
-45,
-17,
-23,
-29,
43,
-37,
30,
-61,
46,
63,
46,
-21,
6,
25,
20,
-52,
28,
14,
38,
-57,
46,
5,
-79,
-1,
-56,
-52,
-18,
8,
-37,
7,
25,
43,
-75,
27,
74,
-61,
-3,
32,
36,
-32,
-67,
56,
11,
60,
36,
13,
-16,
-56,
-31,
-8,
29,
14,
-46,
55,
23,
0,
46,
-30,
31,
38,
-7,
-120,
-65,
34,
76,
14,
-65,
39,
56,
-2,
-7,
56,
44,
14,
-101,
-53,
15,
4,
72,
31,
-43,
-17,
1,
8,
93,
48,
-72,
-13,
-74,
12,
-8,
89,
81,
-8,
7,
-11,
-21,
4,
-15,
-57,
47,
9,
12,
-32,
6,
58,
-6,
62,
29,
-72,
-100,
-45,
23,
64,
-79,
-53,
-32,
1,
-30,
-1,
15,
10,
-90,
-65,
-65,
-22,
-19,
-59,
27,
44,
33,
43,
29,
-49,
0,
7,
16,
-18,
-43,
54,
47,
-1,
-4,
-10,
48,
12,
-64,
33,
34,
-28,
-55,
3,
16,
-53,
19,
61,
-19,
34,
-74,
15,
-1,
18,
55,
7,
-58,
-9,
36,
12,
-50,
28,
66,
-23,
8,
73,
67,
-28,
56,
-45,
39,
-62,
-18,
-78,
28,
-53,
-46,
54,
-30,
-53,
2,
38,
-46,
3,
64,
-30,
-67,
-24,
-63,
18,
-21,
-25,
41,
-43,
51,
3,
-10,
-54,
-34,
-51,
-40,
57,
47,
34,
-42,
67,
63,
-66,
70,
-30,
7,
-29,
26,
42,
46,
-65,
-24,
-56,
-40,
-34,
-4,
91,
-12,
-50,
12,
73,
-19,
34,
-49,
-75,
-20,
20,
7,
17,
-35,
0,
18,
69,
-39,
23,
3,
-79,
-57,
18,
-41,
16,
59,
-60,
-2,
-33,
-72,
69,
-67,
0,
31,
-19,
-106,
-26,
-54,
-23,
15,
69,
5,
-1,
-58,
-10,
-71,
14,
-56,
-24,
12,
-78,
10,
70,
-72,
56,
29,
53,
-6,
-70,
31,
-63,
-45,
-4,
52,
77,
46,
38,
-17,
-41,
77,
-67,
1,
-28,
66,
36,
-54,
-35,
-54,
22,
-52,
-54,
-17,
-14,
95,
94,
16,
-44,
36,
-5,
1,
-24,
46,
-35,
-19,
-78,
-60,
60,
-58,
-18,
34,
-44,
50,
-40,
42,
10,
-43,
-18,
-32,
7,
-70,
-14,
-45,
-40,
1,
24,
-59,
-39,
-58,
-58,
-27,
46,
-12,
-3,
35,
-59,
-19,
-45,
33,
-34,
-8,
-63,
-27,
16,
20,
-41,
22,
-59,
31,
-84,
13,
49,
-37,
-17,
-20,
-59,
-39,
-57,
54,
40,
36,
40,
34,
68,
-45,
-32,
30,
9,
65,
28,
9,
65,
51,
-10,
80,
-36,
-35,
-24,
-21,
2,
87,
77,
-57,
-59,
21,
-24,
-33,
9,
52,
43,
-39,
22,
51,
-48,
-1,
58,
17,
-5,
3,
64,
-28,
-44,
63,
13,
43,
47,
21,
28,
-46,
-18,
45,
49,
-4,
45,
39,
-37,
37,
-20,
-8,
-12,
-6,
28,
-38,
14,
9,
12,
35,
4,
-27,
39,
-21,
-16,
63,
-69,
-29,
33,
-39,
-51,
-82,
-42,
72,
61,
53,
38,
5,
49,
69,
-29,
-60,
-13,
21,
46,
-30,
-62,
-41,
-51,
43,
-55,
30,
-59,
-19,
-66,
-72,
-23,
26,
-41,
-35,
-39,
-38,
-19,
-73,
-90,
-50,
-2,
-20,
57,
7,
-44,
22,
25,
-33,
28,
-57,
15,
-70,
-58,
13,
-26,
54,
-4,
-16,
2,
-54,
66,
-25,
-28,
30,
-32,
87,
65,
55,
44,
-79,
-35,
-4,
-45,
66,
55,
32,
48,
14,
43,
10,
-43,
45,
-23,
12,
45,
55,
15,
6,
31,
76,
-9,
40,
44,
-13,
-47,
-11,
39,
-42,
-18,
-12,
47,
53,
-56,
20,
-30,
44,
-24,
-47,
-64,
-26,
-16,
0,
40,
-34,
-56,
-66,
1,
18,
22,
36,
-28,
-18,
-35,
10,
-15,
-61,
-26,
-39,
-27,
19,
21,
41,
-2,
71,
-50,
-62,
12,
-32,
-28,
-44,
-12,
3,
1,
-38,
76,
77,
57,
7,
38,
48,
27,
16,
-15,
-68,
70,
82,
-33,
77,
-36,
-77,
37,
-75,
29,
-37,
-11,
2,
-11,
56,
-89,
31,
-20,
-14,
-59,
-16,
37,
-6,
46,
70,
-16,
56,
-36,
-16,
-25,
-13,
36,
-24,
48,
25,
-33,
75,
23,
24,
-20,
-4,
-49,
-7,
-79,
-87,
-71,
-6,
39,
-20,
59,
51,
-67,
-24,
27,
48,
46,
37,
11,
-62,
15,
51,
-50,
19,
68,
-40,
54,
-53,
-8,
-21,
-52,
26,
-25,
-67,
-21,
-48,
37,
-51,
38,
-47,
63,
57,
25,
3,
-55,
-68,
-24,
5,
-28,
6,
-28,
-38,
-7,
6,
38,
-62,
27,
44,
31,
-4,
-15,
32,
-25,
45,
-19,
-27,
58,
-66,
51,
4,
-13,
59,
-56,
-43,
-58,
-60,
28,
19,
-22,
51,
-13,
69,
8,
23,
12,
-9,
-5,
-12,
73,
47,
-15,
-49,
-17,
42,
-82,
55,
31,
67,
10,
-43,
78,
56,
15,
44,
80,
-10,
-8,
22,
28,
-10,
-12,
44,
-36,
-3,
-74,
-29,
-77,
51,
64,
31,
-10,
33,
4,
-37,
-23,
-34,
-26,
-15,
0,
63,
15,
-59,
-18,
54,
13,
41,
40,
47,
-32,
92,
7,
-7,
15,
-1,
9,
41,
-51,
21,
-57,
-6,
8,
-17,
-32,
13,
29,
43,
-64,
-72,
-3,
11,
-67,
-14,
-58,
15,
15,
-60,
50,
35,
-29,
-34,
-41,
57,
-45,
-56,
29,
-82,
-30,
-52,
-30,
-52,
68,
46,
-6,
33,
-61,
54,
30,
85,
27,
24,
58,
-53,
1,
-12,
12,
-45,
-2,
-41,
-29,
-16,
36,
29,
28,
14,
-27,
-23,
3,
-78,
-16,
75,
-43,
8,
56,
68,
16,
-43,
23,
-25,
-3,
-43,
-29,
8,
-23,
82,
-18,
-16,
7,
-74,
16,
-21,
-62,
-6,
-84,
5,
-28,
40,
46,
65,
47,
-90,
-76,
46,
-24,
-51,
-8,
51,
-49,
-33,
55,
50,
-11,
54,
-56,
-40,
-68,
-9,
21,
-66,
33,
50,
-20,
1,
11,
-8,
-59,
-84,
66,
15,
-10,
-84,
-89,
23,
-62,
-2,
-50,
31,
52,
9,
-83,
-58,
29,
7,
-40,
-34,
31,
103,
-27,
-84,
30,
26,
66,
-54,
-62,
26,
20,
-47,
-22,
-24,
11,
-69,
-17,
15,
11,
-26,
-47,
78,
-15,
45,
-51,
-60,
-41,
37,
-1,
-71,
-66,
-71,
-48,
-55,
-58,
-75,
-69,
-1,
21,
50,
-52,
50,
-54,
46,
6,
-95,
-79,
-53,
64,
65,
72,
16,
-33,
37,
74,
-12,
4,
-113,
-127,
-37,
-47,
56,
-41,
-2,
36,
26,
-52,
4,
21,
-63,
-33,
-44,
3,
-11,
67,
7,
37,
-69,
60,
-48,
40,
28,
-88,
49,
30,
-40,
26,
12,
-42,
31,
-63,
-68,
-56,
50,
29,
-46,
-32,
-15,
-34,
4,
-79,
-66,
-38,
-24,
50,
28,
-47,
13,
56,
45,
8,
-85,
38,
48,
-15,
-72,
13,
35,
12,
-11,
47,
11,
-83,
-47,
-6,
-64,
-77,
57,
24,
-79,
10,
-69,
54,
38,
-52,
-3,
-19,
34,
-9,
39,
-83,
32,
-8,
18,
59,
-4,
87,
72,
6,
-77,
-33,
66,
-9,
73,
6,
51,
51,
65,
-21,
-14,
-31,
-33,
-10,
10,
-29,
69,
66,
-46,
6,
-28,
-5,
62,
-59,
0,
-37,
58,
-40,
36,
35,
31,
-34,
-57,
68,
-31,
26,
-54,
-16,
-67,
-49,
3,
72,
16,
-39,
-10,
3,
-47,
-21,
34,
-72,
8,
28,
24,
18,
34,
-56,
27,
-64,
-62,
-5,
-10,
-78,
-11,
-28,
48,
-3,
-23,
76,
-52,
18,
46,
-20,
57,
-65,
-6,
-39,
-18,
-9,
29,
-43,
-5,
-28,
17,
52,
-18,
-4,
1,
41,
50,
30,
-44,
66,
-17,
-19,
58,
13,
58,
80,
-24,
68,
45,
12,
15,
62,
35,
41,
59,
-65,
-5,
-60,
22,
-20,
-1,
-36,
17,
-29,
-59,
-28,
34,
-32,
4,
29,
-53,
-75,
16,
-47,
11,
-20,
-37,
-54,
-48,
-22,
-71,
9,
-80,
51,
3,
8,
6,
30,
44,
11,
-19,
-5,
-36,
-1,
43,
-49,
61,
-15,
35,
-39,
66,
21,
-73,
-61,
41,
54,
-4,
93,
-26,
-5,
3,
46,
-43,
46,
-2,
4,
-43,
-41,
16,
-52,
34,
-13,
25,
-32,
39,
12,
-21,
6,
1,
28,
-6,
5,
-65,
-27,
95,
5,
-27,
20,
20,
-22,
26,
-20,
10,
-39,
-4,
41,
30,
40,
-46,
43,
-62,
-53,
10,
-11,
-10,
-46,
-33,
-48,
26,
-55,
-14,
23,
-54,
-79,
-29,
-83,
-79,
-10,
-7,
11,
10,
-23,
-21,
21,
-40,
23,
27,
33,
-47,
-66,
8,
-10,
-60,
-28,
-72,
18,
-69,
34,
-67,
32,
56,
44,
37,
48,
26,
-10,
51,
8,
15,
12,
41,
-46,
5,
67,
-39,
-30,
-27,
36,
33,
-4,
-43,
67,
20,
-74,
67,
24,
-17,
34,
42,
25,
-30,
-30,
-2,
12,
-76,
-45,
-69,
61,
-60,
-59,
-30,
51,
-11,
16,
-38,
37,
-75,
-9,
52,
48,
45,
-2,
-25,
16,
39,
15,
-30,
-69,
-33,
-28,
28,
19,
58,
-37,
-5,
72,
25,
-7,
-4,
-19,
-2,
-17,
46,
5,
-24,
60,
-20,
-20,
-74,
67,
34,
33,
-33,
-18,
-49,
-5,
-22,
40,
16,
71,
-57,
-60,
69,
-16,
-54,
25,
59,
-28,
-35,
-21,
9,
42,
-24,
-44,
-3,
-34,
57,
9,
19,
-46,
54,
2,
-48,
-6,
-60,
3,
-42,
-1,
50,
-13,
-46,
-67,
23,
8,
13,
0,
-34,
-61,
48,
49,
-57,
-48,
-19,
-79,
-59,
60,
-26,
42,
-37,
32,
-55,
54,
-50,
27,
57,
-45,
39,
26,
71,
-28,
21,
-5,
-54,
-55,
-23,
-65,
32,
-5,
-33,
43,
1,
12,
-64,
-21,
-16,
-14,
-58,
-47,
-8,
24,
3,
-1,
-59,
36,
46,
-16,
-16,
65,
36,
9,
-38,
10,
-11,
-30,
-7,
56,
-29,
-18,
-65,
16,
17,
-48,
-63,
-2,
-2,
-59,
-11,
5,
112,
22,
61,
-69,
-25,
-51,
-39,
-67,
-60,
56,
-68,
-73,
21,
69,
-24,
-3,
-16,
39,
-49,
-3,
-31,
-9,
-100,
22,
10,
61,
77,
-32,
79,
-19,
70,
80,
-23,
8,
-9,
-4,
-13,
-38,
43,
11,
3,
-60,
15,
16,
-3,
-35,
19,
-5,
29,
-78,
-26,
-39,
-41,
-67,
-69,
-66,
-36,
26,
13,
-93,
-96,
-43,
1,
9,
20,
-66,
-29,
42,
-3,
-8,
-9,
-17,
-50,
-66,
26,
-2,
13,
-37,
-21,
57,
29,
-5,
42,
-16,
71,
42,
-13,
53,
51,
-38,
62,
2,
63,
-69,
-54,
-32,
92,
41,
-54,
51,
-55,
-76,
-33,
-71,
-53,
-52,
42,
11,
-69,
4,
-5,
-62,
11,
-60,
-45,
78,
14,
11,
-17,
3,
75,
22,
-28,
-14,
11,
-11,
-57,
-31,
-15,
-16,
20,
-9,
-52,
-63,
67,
-15,
11,
-30,
63,
-28,
-2,
40,
24,
-22,
-47,
-5,
-60,
56,
17,
65,
-10,
55,
-39,
-41,
-21,
-31,
99,
26,
74,
-49,
-18,
-56,
-18,
8,
-25,
79,
32,
-9,
-25,
-21,
-45,
19,
-36,
-65,
41,
14,
7,
44,
-72,
0,
-49,
-18,
48,
-32,
3,
52,
-87,
-11,
65,
-58,
27,
-69,
-35,
-47,
28,
-57,
-3,
-76,
-63,
-55,
44,
-36,
6,
-42,
-13,
64,
15,
76,
26,
-77,
50,
-10,
-20,
29,
-38,
-58,
-13,
-47,
12,
37,
-65,
77,
-31,
-27,
23,
-18,
12,
32,
-79,
50,
52,
14,
-34,
-34,
-26,
31,
40,
-33,
38,
34,
-44,
-40,
39,
-21,
46;
