memory_initialization_radix=10;
memory_initialization_vector=
41,
12,
65,
66,
-42,
-23,
-21,
-14,
-74,
69,
28,
68,
-36,
59,
-23,
-35,
24,
-72,
-18,
21,
11,
-29,
69,
15,
30,
56,
42,
65,
-58,
-35,
-23,
11,
-44,
44,
66,
-31,
14,
-36,
17,
25,
-75,
-30,
-9,
1,
16,
-10,
34,
19,
5,
27,
-41,
-1,
-56,
49,
-59,
-29,
14,
3,
-37,
-44,
-23,
3,
46,
-5,
51,
-15,
-49,
36,
-44,
16,
13,
-22,
17,
77,
51,
67,
59,
-50,
29,
-18,
-80,
-46,
18,
31,
-53,
82,
61,
-47,
-87,
-60,
-36,
9,
48,
-20,
-65,
-1,
59,
-36,
53,
29,
-27,
-68,
-21,
-2,
-2,
-33,
-15,
2,
60,
51,
48,
26,
-68,
25,
-28,
25,
-5,
25,
79,
-38,
8,
64,
-68,
21,
38,
-1,
-26,
-65,
28,
-28,
34,
-3,
22,
-63,
31,
-43,
-19,
8,
-60,
71,
-51,
-60,
-26,
68,
-65,
53,
-58,
40,
53,
6,
27,
15,
21,
19,
-14,
9,
77,
-62,
28,
-35,
7,
52,
32,
-53,
13,
55,
18,
23,
20,
44,
48,
-31,
-14,
-70,
42,
-32,
60,
1,
-1,
41,
25,
-66,
-4,
25,
17,
15,
21,
30,
25,
14,
66,
4,
74,
4,
13,
14,
-81,
-29,
-95,
60,
63,
-62,
2,
42,
-48,
46,
-23,
-61,
32,
-43,
-28,
-78,
53,
-38,
45,
-61,
71,
84,
-30,
20,
-8,
-37,
-64,
40,
6,
64,
49,
13,
19,
-47,
-10,
-61,
48,
8,
41,
42,
-44,
-56,
40,
-21,
-22,
-10,
12,
-84,
56,
-22,
-63,
-4,
-70,
56,
-21,
13,
10,
68,
-67,
28,
-28,
-10,
11,
1,
43,
-61,
-9,
-1,
39,
48,
11,
-31,
56,
-71,
-37,
-43,
30,
-91,
36,
22,
17,
-52,
73,
1,
-38,
4,
45,
-2,
31,
-37,
26,
44,
55,
82,
-35,
82,
-60,
-19,
-19,
42,
-25,
35,
20,
-39,
-10,
-44,
-40,
7,
63,
12,
31,
18,
56,
-33,
2,
-7,
-31,
6,
78,
4,
-47,
65,
21,
-56,
30,
-29,
25,
-70,
-18,
-15,
-42,
-16,
-6,
32,
-21,
28,
56,
-9,
53,
35,
68,
-2,
-45,
-47,
-78,
-45,
-59,
75,
-56,
65,
12,
-9,
36,
37,
20,
-62,
56,
17,
72,
14,
-30,
-21,
-34,
14,
-29,
-69,
-10,
-35,
-33,
74,
30,
-35,
44,
60,
61,
31,
13,
53,
10,
-33,
-36,
-55,
32,
-83,
59,
-8,
-23,
-49,
5,
4,
3,
-68,
44,
-72,
40,
-20,
21,
-61,
-31,
29,
35,
-48,
-29,
49,
27,
-13,
14,
53,
47,
-49,
-13,
-39,
-34,
13,
-65,
-22,
28,
-61,
39,
-42,
-41,
48,
-41,
-63,
49,
57,
17,
32,
22,
34,
10,
-38,
-46,
13,
41,
11,
37,
-13,
-8,
-7,
20,
18,
-69,
44,
-31,
-26,
39,
43,
-44,
19,
-9,
-26,
51,
-41,
-9,
28,
54,
24,
-12,
8,
-36,
20,
-12,
-61,
60,
29,
-44,
52,
-51,
19,
-50,
-83,
1,
-61,
-13,
-20,
29,
38,
36,
-19,
-59,
-51,
-49,
-84,
-56,
14,
48,
-72,
6,
5,
-72,
-53,
-32,
-68,
22,
-61,
42,
7,
43,
-6,
22,
-23,
7,
42,
12,
29,
-33,
-36,
-28,
-9,
32,
61,
46,
-30,
58,
55,
-26,
-59,
-21,
-58,
65,
18,
78,
84,
43,
1,
11,
27,
24,
39,
36,
37,
-24,
-43,
61,
4,
47,
96,
-3,
-36,
17,
39,
-53,
-37,
-33,
34,
1,
20,
-7,
-48,
-46,
56,
55,
-100,
5,
40,
47,
-49,
93,
-22,
24,
78,
3,
-35,
1,
35,
-25,
-78,
19,
-69,
-61,
-39,
2,
33,
-58,
-11,
-62,
4,
-60,
9,
-58,
66,
76,
-21,
30,
57,
-6,
28,
0,
-34,
-58,
-10,
-41,
-29,
2,
-79,
-72,
-49,
-39,
75,
-56,
-58,
49,
-22,
-32,
-15,
2,
6,
-49,
-45,
-2,
39,
-4,
66,
-53,
-16,
-24,
19,
2,
-34,
-35,
19,
-2,
-43,
-18,
0,
24,
72,
-52,
-37,
-63,
-55,
31,
-38,
-53,
-35,
-58,
51,
5,
29,
77,
37,
-41,
-15,
6,
-6,
35,
23,
-31,
-73,
-20,
-11,
-43,
-9,
68,
31,
-20,
9,
-10,
-78,
-5,
3,
70,
50,
-16,
-23,
-41,
7,
-60,
34,
-54,
64,
46,
-36,
32,
23,
3,
93,
-49,
39,
28,
-15,
45,
60,
-1,
37,
6,
91,
-38,
39,
-14,
41,
22,
-1,
-56,
-7,
10,
30,
-82,
-11,
-4,
-40,
-60,
35,
-6,
21,
-68,
-68,
-14,
-43,
44,
-17,
-38,
-16,
68,
43,
-36,
-4,
12,
21,
14,
-29,
60,
-69,
75,
-7,
26,
49,
-56,
-5,
-3,
47,
-17,
-38,
56,
65,
38,
-73,
-14,
56,
-87,
26,
42,
-51,
10,
-9,
-65,
-46,
4,
-72,
-40,
-9,
-17,
-27,
24,
17,
2,
-34,
-21,
5,
20,
-47,
-3,
-64,
-64,
1,
16,
11,
-2,
75,
-23,
26,
26,
22,
-58,
-12,
-17,
-83,
-37,
25,
75,
-12,
-29,
35,
41,
-16,
24,
78,
-52,
-21,
7,
-51,
-27,
48,
66,
14,
-4,
46,
-19,
-43,
-14,
43,
66,
-4,
-56,
23,
-71,
42,
67,
-34,
0,
-5,
-100,
-90,
-15,
7,
-63,
-55,
-3,
65,
-10,
49,
-13,
-76,
21,
-31,
12,
-44,
33,
2,
-20,
-11,
-61,
-59,
-77,
-12,
-7,
-7,
0,
61,
21,
-34,
-48,
-49,
73,
20,
80,
24,
56,
-60,
26,
34,
91,
52,
34,
-28,
66,
-27,
41,
53,
-18,
57,
22,
-83,
11,
-10,
26,
78,
4,
-55,
15,
27,
50,
-6,
-56,
54,
-30,
43,
26,
-24,
27,
27,
-34,
4,
42,
-7,
14,
40,
55,
7,
-29,
43,
-9,
14,
-62,
-65,
32,
-5,
41,
17,
-11,
65,
50,
82,
33,
4,
-39,
4,
-89,
-43,
-20,
10,
-57,
21,
58,
-2,
-50,
-57,
40,
28,
42,
-3,
-24,
29,
52,
29,
-59,
33,
-54,
-39,
36,
67,
-36,
-49,
-77,
10,
-73,
-43,
-25,
28,
37,
-64,
44,
-45,
5,
33,
53,
47,
2,
-19,
31,
47,
45,
-93,
2,
54,
43,
28,
32,
-47,
-50,
46,
-32,
-51,
-61,
-31,
33,
9,
57,
43,
-3,
38,
-22,
-18,
-41,
89,
14,
15,
-75,
16,
-49,
51,
-38,
40,
55,
26,
43,
-23,
68,
55,
-3,
45,
-9,
-2,
-23,
66,
3,
-7,
38,
-46,
19,
27,
2,
-42,
51,
7,
51,
-54,
19,
-40,
-63,
-42,
37,
26,
-75,
-66,
50,
-27,
-23,
14,
-56,
43,
58,
-81,
-27,
35,
-31,
-40,
37,
-3,
14,
17,
28,
-42,
-62,
-37,
14,
31,
-20,
-39,
-49,
47,
-17,
54,
-51,
-58,
33,
-20,
46,
6,
66,
-6,
-48,
27,
-5,
26,
-4,
48,
-56,
-8,
-46,
30,
60,
-65,
-37,
42,
-49,
26,
36,
44,
-24,
-17,
-21,
55,
75,
-12,
50,
-43,
26,
-42,
51,
-13,
-9,
-53,
-59,
-36,
15,
52,
-50,
-12,
23,
14,
-10,
7,
-62,
95,
43,
36,
-37,
31,
-7,
-40,
-21,
-2,
2,
15,
58,
99,
23,
40,
10,
50,
5,
-8,
-17,
-27,
33,
-42,
-16,
13,
-31,
75,
25,
47,
17,
-77,
-57,
57,
51,
39,
28,
-27,
-45,
38,
-2,
23,
-44,
-85,
-4,
0,
27,
-37,
25,
38,
18,
54,
7,
32,
6,
-42,
-53,
-37,
58,
-45,
8,
-86,
-6,
39,
-36,
5,
43,
-75,
10,
-6,
24,
67,
-77,
0,
-61,
63,
-13,
-33,
-11,
76,
14,
-32,
-9,
39,
-7,
-87,
37,
2,
4,
-11,
70,
-63,
45,
72,
12,
31,
-61,
-29,
-38,
16,
18,
-8,
23,
-16,
56,
-42,
47,
83,
-59,
-30,
-28,
-29,
-15,
15,
43,
-2,
15,
47,
-26,
22,
-33,
-16,
-3,
-2,
39,
21,
10,
-50,
-40,
-40,
-36,
13,
-37,
-82,
-2,
-1,
28,
68,
64,
-44,
-56,
14,
6,
-26,
-20,
-68,
90,
75,
74,
-19,
60,
90,
-31,
26,
27,
66,
-57,
17,
-5,
20,
-12,
-2,
-62,
-28,
-1,
11,
21,
-37,
-33,
23,
83,
49,
-18,
9,
47,
31,
-28,
-29,
-33,
35,
-21,
-20,
49,
73,
-27,
86,
0,
15,
27,
13,
-10,
18,
-24,
37,
-4,
-21,
-72,
-61,
16,
-23,
53,
-14,
-9,
-1,
-58,
-65,
-44,
23,
-65,
-21,
49,
36,
71,
48,
-79,
37,
36,
27,
55,
-40,
20,
54,
8,
-10,
-67,
2,
-15,
34,
-8,
62,
-62,
8,
-13,
14,
64,
16,
-48,
16,
35,
1,
-8,
54,
36,
81,
27,
-24,
38,
-23,
22,
-65,
24,
44,
-43,
25,
43,
0,
34,
74,
78,
16,
47,
-22,
-46,
-28,
-43,
-6,
79,
20,
67,
15,
34,
78,
33,
17,
-23,
76,
92,
39,
13,
43,
-29,
69,
58,
20,
54,
-27,
33,
-61,
5,
-35,
4,
-15,
59,
-37,
-16,
57,
8,
44,
-8,
-46,
37,
-55,
55,
12,
-32,
-66,
14,
7,
-57,
-40,
46,
9,
-60,
72,
-45,
56,
-48,
-16,
6,
-6,
22,
65,
-41,
30,
19,
14,
-36,
-11,
-51,
-60,
-5,
46,
51,
11,
25,
51,
-26,
-72,
10,
-23,
68,
49,
16,
-24,
61,
-58,
62,
-15,
-74,
-5,
56,
37,
-7,
8,
-61,
-50,
53,
-72,
-62,
-13,
-25,
49,
-11,
42,
53,
22,
39,
-1,
80,
6,
48,
31,
52,
-81,
34,
-70,
60,
-7,
-4,
-27,
-51,
53,
-3,
13,
-44,
-16,
-63,
71,
20,
-21,
-19,
-91,
31,
74,
-20,
-29,
22,
-51,
54,
-25,
61,
71,
-58,
58,
-61,
84,
35,
68,
89,
24,
4,
4,
27,
55,
80,
-65,
29,
-55,
19,
21,
49,
45,
-10,
-18,
-1,
-21,
19,
10,
30,
82,
27,
35,
-74,
-88,
-59,
-21,
50,
-82,
-27,
-60,
-46,
53,
-66,
18,
-26,
-60,
-48,
-43,
21,
-20,
0,
-63,
56,
35,
-8,
55,
-3,
50,
-40,
18,
-40,
-60,
-80,
-86,
10,
82,
11,
-26,
-11,
9,
41,
22,
-25,
-2,
-98,
-83,
-8,
-68,
79,
-75,
52,
70,
-74,
-1,
31,
-76,
-24,
-59,
60,
-8,
67,
-41,
5,
-49,
23,
-21,
-36,
27,
-78,
-65,
-50,
-46,
-45,
61,
-9,
33,
-8,
42,
39,
-41,
29,
-30,
-23,
-50,
-37,
-18,
-13,
-52,
29,
-41,
63,
58,
31,
-27,
1,
-64,
-68,
-27,
-69,
0,
92,
-14,
52,
-3,
28,
-44,
-4,
-64,
53,
28,
-1,
-46,
93,
85,
51,
-6,
45,
17,
21,
35,
0,
-26,
-47,
-72,
33,
-3,
24,
70,
30,
50,
59,
-8,
16,
-45,
67,
86,
32,
-28,
-30,
-38,
-10,
-35,
-78,
61,
-27,
16,
22,
-31,
-6,
24,
40,
42,
46,
38,
2,
-52,
4,
-4,
-25,
54,
41,
-75,
-52,
-61,
68,
39,
-68,
-59,
-54,
32,
-33,
20,
-17,
48,
-12,
-74,
-33,
-50,
-13,
-6,
-45,
25,
-70,
47,
-20,
16,
54,
65,
50,
-81,
29,
-52,
5,
-2,
-11,
-51,
20,
68,
-50,
-59,
-41,
-24,
-65,
29,
47,
50,
5,
0,
-72,
61,
43,
30,
82,
27,
-29,
-34,
52,
-51,
-4,
73,
-60,
59,
-51,
-50,
65,
-11,
8,
14,
-46,
-81,
16,
42,
-15,
27,
-9,
-39,
42,
-49,
-52,
31,
-73,
20,
-85,
-31,
-1,
5,
9,
-15,
52,
41,
-9,
7,
-46,
-57,
13,
-54,
-21,
-7,
-18,
-22,
-7,
54,
49,
-40,
-44,
-53,
-36,
0,
88,
71,
15,
-36,
-18,
-13,
-17,
81,
72,
-52,
-72,
-71,
83,
-37,
60,
-20,
-45,
96,
8,
56,
-27,
-23,
-90,
25,
-13,
-66,
22,
66,
-44,
-25,
-28,
31,
-12,
-37,
-26,
28,
-4,
-43,
25,
-47,
15,
51,
-34,
3,
21,
48,
-21,
42,
-7,
64,
-38,
-36,
-45,
17,
-11,
-54,
-19,
-11,
38,
-40,
61,
75,
43,
42,
68,
-37,
-49,
-50,
65,
7,
27,
-55,
6,
-65,
-6,
-17,
37,
7,
49,
15,
-4,
-14,
43,
34,
55,
-10,
-60,
53,
34,
27,
-53,
-12,
-73,
-20,
59,
-43,
-21,
51,
-21,
-33,
15,
20,
2,
-45,
20,
-51,
-71,
42,
-22,
58,
-16,
-58,
-25,
-60,
51,
-44,
-22,
28,
-43,
71,
-38,
37,
75,
-12,
40,
-4,
50,
3,
53,
33,
32,
-82,
-4,
-69,
11,
31,
-19,
-41,
33,
-38,
-57,
-36,
-26,
47,
-47,
-36,
-13,
-48,
24,
29,
-32,
-49,
-23,
45,
-32,
18,
-9,
33,
20,
-39,
-51,
33,
19,
-27,
75,
78,
-19,
-8,
50,
-19,
-9,
-21,
50,
10,
-34,
-28,
-14,
-23,
88,
-40,
38,
39,
53,
-60,
-61,
-13,
52,
25,
73,
15,
31,
61,
4,
-52,
-20,
-73,
-47,
-13,
-35,
-18,
-34,
-37,
36,
26,
-59,
-42,
-74,
-54,
57,
47,
27,
-47,
-33,
37,
-40,
27,
-52,
81,
-6,
-14,
-30,
-26,
-37,
41,
-27,
16,
-37,
36,
26,
-51,
77,
-21,
-43,
51,
11,
54,
9,
-64,
18,
5,
13,
-10,
47,
68,
7,
2,
5,
9,
9,
60,
-62,
43,
60,
-50,
28,
18,
63,
66,
57,
19,
-35,
49,
43,
59,
-33,
-42,
-41,
-30,
4,
8,
-28,
-5,
-26,
-43,
-69,
-60,
72,
-38,
6,
-20,
24,
-3,
-32,
27,
-36,
-84,
-14,
-24,
-43,
-71,
53,
31,
1,
-96,
16,
26,
-49,
-57,
41,
69,
76,
45,
-32,
40,
8,
1,
-8,
47,
12,
24,
-38,
6,
48,
13,
80,
-11,
-31,
-17,
102,
9,
-26,
-28,
16,
75,
48,
-4,
63,
-12,
21,
-38,
-8,
52,
-33,
26,
53,
-16,
21,
46,
82,
45,
46,
-91,
-24,
-49,
33,
-69,
43,
-68,
12,
67,
-46,
23,
-10,
-14,
60,
-22,
27,
13,
1,
10,
-45,
-22,
33,
28,
-22,
-69,
-38,
-43,
53,
76,
10,
-48,
30,
25,
47,
-16,
30,
33,
28,
39,
-14,
-61,
-2,
25,
41,
-37,
-27,
-13,
-20,
-21,
63,
48,
-32,
-42,
-57,
25,
-53,
-43,
42,
66,
70,
50,
3,
-8,
-44,
-58,
29,
-50,
12,
61,
-45,
-59,
-1,
19,
24,
3,
1,
17,
-29,
53,
19,
-19,
-43,
-54,
-22,
-42,
1,
68,
-39,
-64,
61,
-65,
-4,
9,
13,
-26,
53,
-71,
37,
-40,
-12,
72,
-23,
5,
8,
13,
-5,
-35,
1,
-77,
-37,
31,
61,
20,
-40,
29,
36,
32,
-59,
-3,
-14,
18,
34,
-17,
43,
-49,
70,
-40,
-46,
-15,
17,
22,
35,
28,
6,
-31,
-76,
65,
-40,
41,
32,
19,
-21,
57,
3,
19,
58,
-5,
-15,
32,
12,
6,
8,
44,
39,
69,
-60,
32,
71,
36,
45,
62,
22,
-24,
-48,
51,
58,
16,
-8,
22,
-28,
-3,
-19,
60,
-62,
-12;
