memory_initialization_radix=10;
memory_initialization_vector=
39,
-1,
-43,
-20,
28,
-29,
-48,
-63,
55,
-33,
-67,
10,
-5,
65,
-18,
17,
-59,
-62,
-4,
-29,
-70,
27,
-67,
34,
19,
-29,
-9,
-39,
70,
43,
74,
-26,
77,
-21,
61,
22,
1,
20,
9,
-30,
36,
97,
31,
3,
7,
60,
-77,
6,
48,
-74,
1,
-18,
-25,
-40,
84,
-23,
57,
58,
-34,
59,
43,
-1,
10,
22,
20,
-41,
-23,
-2,
-50,
31,
67,
70,
-23,
37,
17,
17,
-58,
38,
-61,
37,
61,
8,
-47,
60,
45,
5,
-33,
-9,
44,
43,
-33,
27,
36,
-29,
-17,
69,
68,
94,
53,
-31,
-50,
43,
11,
-72,
67,
26,
-54,
11,
64,
-34,
81,
72,
-23,
-23,
-10,
35,
-48,
70,
9,
-14,
-3,
-78,
-27,
2,
72,
-12,
-45,
0,
55,
-71,
6,
-52,
52,
-84,
20,
-56,
63,
-62,
6,
30,
40,
-28,
-22,
-22,
46,
66,
46,
-9,
-8,
65,
68,
81,
-20,
34,
-22,
-5,
31,
-24,
89,
87,
-2,
86,
-27,
-42,
-42,
-29,
-55,
24,
43,
-52,
-50,
-18,
38,
-34,
-54,
-36,
-43,
-95,
-62,
-6,
-15,
51,
-13,
67,
-3,
-54,
-40,
16,
7,
56,
13,
-3,
-13,
-15,
-79,
-11,
-21,
-17,
49,
-56,
73,
-72,
-15,
-35,
-7,
58,
42,
-41,
39,
73,
41,
3,
45,
66,
31,
20,
-87,
42,
-10,
-21,
35,
-64,
-18,
-20,
-47,
-50,
0,
-23,
-21,
17,
33,
21,
-45,
12,
35,
18,
-33,
51,
-29,
-18,
-9,
77,
-70,
-24,
6,
67,
9,
-29,
-15,
14,
-10,
11,
11,
-36,
-34,
35,
8,
35,
-31,
-14,
29,
-2,
-6,
-87,
16,
-86,
-50,
-50,
-32,
78,
-25,
-34,
78,
-5,
-4,
-49,
-86,
-66,
71,
-62,
78,
12,
-2,
-44,
-19,
-27,
8,
27,
42,
-10,
48,
-9,
15,
-32,
51,
15,
28,
20,
56,
5,
0,
-58,
3,
-55,
14,
46,
-56,
39,
-2,
43,
45,
-45,
46,
53,
-62,
65,
-67,
-16,
51,
33,
16,
29,
0,
-58,
-69,
22,
29,
27,
48,
-23,
-19,
-77,
34,
11,
49,
28,
-53,
-7,
-16,
-27,
-39,
57,
-6,
37,
13,
-9,
48,
-60,
41,
58,
6,
21,
40,
57,
54,
70,
23,
11,
27,
-29,
19,
45,
-42,
81,
-44,
-44,
12,
13,
-6,
81,
-56,
81,
-46,
-35,
-46,
68,
-42,
-3,
38,
20,
-23,
11,
-38,
-13,
12,
30,
-60,
-69,
-60,
63,
34,
-42,
-31,
-5,
35,
47,
-57,
37,
32,
-45,
3,
32,
37,
-21,
-31,
-18,
-30,
27,
19,
17,
-30,
-38,
-27,
-60,
60,
-53,
53,
-50,
37,
36,
52,
37,
-36,
-65,
65,
44,
26,
-29,
15,
-31,
-34,
61,
56,
-42,
-33,
20,
-42,
8,
-36,
18,
21,
-6,
41,
76,
5,
64,
-21,
-15,
-24,
87,
-53,
-1,
-10,
-71,
2,
9,
14,
40,
31,
8,
90,
68,
-14,
21,
-14,
-3,
-13,
34,
-42,
-67,
-13,
74,
63,
-22,
-36,
-21,
0,
-67,
-79,
15,
-44,
-25,
9,
69,
67,
-51,
-62,
-31,
-69,
29,
-81,
4,
22,
-31,
-30,
33,
5,
-45,
-39,
16,
73,
-16,
42,
45,
45,
-47,
29,
23,
-29,
78,
1,
-77,
-25,
34,
-34,
52,
-38,
10,
43,
34,
-47,
-39,
62,
25,
-37,
31,
0,
8,
20,
-66,
-30,
-57,
6,
-75,
-35,
43,
55,
-69,
13,
21,
-1,
-23,
3,
-81,
-16,
-59,
-26,
59,
-32,
62,
5,
-46,
-19,
-43,
57,
49,
-75,
-29,
32,
30,
62,
-37,
-70,
69,
2,
-49,
73,
27,
-19,
-33,
10,
-24,
-12,
-39,
-53,
-16,
43,
28,
57,
4,
26,
10,
-20,
56,
69,
-56,
52,
6,
-71,
55,
-41,
-16,
-15,
98,
1,
-11,
44,
49,
-52,
56,
-60,
19,
16,
15,
35,
54,
96,
31,
-7,
-26,
1,
-13,
-60,
-10,
88,
-8,
37,
4,
-10,
-41,
28,
-9,
-41,
-70,
-21,
-31,
16,
-2,
65,
91,
-20,
39,
-29,
1,
-59,
20,
-3,
-42,
-47,
-57,
-51,
-22,
3,
-77,
27,
30,
-25,
-60,
-46,
69,
-43,
50,
-35,
34,
-24,
-65,
-11,
51,
-64,
93,
-80,
-30,
68,
38,
-27,
56,
17,
-34,
-17,
-26,
23,
8,
44,
-52,
-31,
-20,
-59,
-49,
-53,
-4,
35,
-19,
-80,
-86,
14,
-66,
38,
49,
-8,
-39,
-10,
30,
28,
16,
-13,
60,
-39,
-9,
-47,
-76,
51,
-66,
-51,
20,
-55,
57,
13,
52,
-70,
7,
-23,
29,
-43,
29,
-29,
32,
-42,
29,
-37,
-37,
0,
-2,
72,
76,
26,
64,
-46,
35,
79,
-11,
-39,
3,
-77,
-21,
72,
53,
62,
-19,
51,
37,
36,
65,
-4,
-41,
-20,
-63,
68,
-33,
23,
-10,
-7,
55,
22,
16,
-16,
12,
-54,
29,
-21,
72,
79,
103,
94,
20,
-32,
12,
35,
5,
-49,
68,
58,
26,
23,
104,
24,
38,
9,
-18,
-61,
-69,
-19,
49,
2,
-61,
16,
72,
-38,
48,
-49,
-26,
1,
71,
69,
-70,
-53,
24,
15,
-62,
-32,
1,
9,
-15,
5,
22,
64,
16,
0,
-82,
-45,
-24,
12,
-44,
46,
-15,
48,
-8,
66,
33,
58,
26,
-32,
53,
-28,
28,
-68,
53,
45,
-56,
24,
8,
-9,
43,
-73,
68,
24,
-67,
55,
-18,
50,
-37,
63,
-69,
49,
1,
84,
3,
-35,
-67,
-40,
28,
-19,
-85,
-29,
-74,
16,
31,
90,
34,
12,
-10,
73,
-39,
10,
-34,
-65,
-65,
45,
-22,
-47,
-34,
26,
0,
46,
49,
62,
-20,
29,
41,
-1,
-16,
-53,
46,
35,
-20,
-5,
4,
63,
-44,
17,
1,
24,
-24,
39,
-51,
58,
63,
-28,
75,
24,
3,
47,
13,
45,
-15,
35,
-19,
23,
52,
0,
-38,
-35,
6,
29,
-62,
-37,
-14,
37,
40,
-48,
-3,
26,
44,
43,
53,
-76,
61,
-49,
-15,
8,
-72,
-6,
1,
-22,
45,
-44,
14,
-4,
-43,
70,
-16,
53,
-9,
47,
-31,
-30,
-35,
9,
-45,
-42,
43,
-33,
-61,
-56,
-43,
-65,
-17,
-32,
27,
-53,
0,
-59,
-67,
10,
-30,
-34,
-66,
19,
60,
-29,
-31,
-57,
26,
48,
1,
18,
-27,
1,
-26,
39,
52,
20,
-69,
-45,
4,
40,
-18,
-71,
-21,
18,
-56,
-32,
-38,
34,
62,
-70,
-54,
22,
-22,
27,
15,
-55,
-25,
32,
39,
-23,
-5,
-29,
-14,
-46,
14,
-47,
14,
-8,
-2,
-24,
53,
23,
-27,
-49,
-49,
38,
-20,
-61,
-59,
58,
86,
-48,
-16,
31,
-68,
41,
-19,
-21,
-6,
71,
30,
61,
8,
-12,
19,
-13,
12,
52,
5,
0,
-60,
-56,
-58,
40,
-59,
22,
-47,
35,
45,
32,
-87,
-1,
-47,
-77,
-44,
-47,
52,
34,
-50,
27,
34,
-24,
-1,
2,
-48,
45,
10,
-19,
8,
-42,
32,
-58,
15,
47,
2,
67,
1,
-47,
-22,
-10,
63,
0,
-3,
49,
-31,
-32,
-5,
79,
71,
-35,
-14,
-54,
-73,
-21,
-64,
48,
10,
-7,
-57,
-9,
43,
-11,
-79,
34,
35,
-27,
58,
-8,
10,
28,
-90,
-66,
10,
-66,
17,
38,
-55,
-32,
-17,
15,
71,
-7,
-28,
-86,
-35,
7,
-49,
40,
-40,
39,
54,
-39,
-22,
37,
-36,
-26,
-35,
75,
69,
-39,
-29,
55,
-42,
21,
0,
-1,
28,
64,
52,
31,
68,
44,
64,
52,
-1,
-58,
25,
-70,
29,
57,
23,
12,
69,
-8,
18,
-24,
53,
-10,
-47,
-42,
-33,
26,
-19,
49,
13,
53,
17,
2,
64,
39,
-17,
7,
50,
50,
1,
17,
-26,
31,
-20,
80,
-16,
53,
43,
-29,
17,
-46,
47,
27,
-48,
52,
-11,
10,
1,
-38,
67,
58,
-5,
65,
17,
-10,
10,
74,
26,
85,
62,
44,
-51,
-47,
-69,
17,
-74,
9,
-61,
43,
87,
-67,
-94,
-19,
-47,
-13,
-30,
-44,
9,
-12,
-19,
-11,
40,
-42,
18,
27,
64,
45,
-53,
71,
-65,
36,
23,
-46,
-69,
-51,
-75,
34,
-67,
-38,
-92,
-11,
-31,
-55,
7,
-38,
79,
68,
-60,
-69,
-25,
-81,
-35,
63,
49,
-55,
-43,
42,
58,
33,
18,
3,
-9,
34,
63,
-70,
47,
-67,
-58,
-42,
39,
-27,
-52,
65,
1,
37,
-56,
-6,
-51,
-21,
-46,
-55,
16,
73,
-66,
-53,
-21,
-46,
83,
4,
11,
-5,
-61,
-38,
-58,
59,
-10,
-3,
39,
9,
-58,
-31,
35,
64,
-39,
-42,
45,
-62,
1,
39,
35,
40,
31,
6,
-50,
-80,
-42,
-81,
-25,
-22,
-43,
11,
46,
-50,
78,
-20,
-51,
3,
-4,
-35,
-39,
7,
10,
34,
7,
-57,
-10,
-16,
-82,
9,
39,
-29,
-53,
-66,
19,
7,
-5,
-46,
58,
14,
6,
25,
-7,
-65,
-15,
-42,
15,
35,
53,
20,
17,
6,
74,
58,
40,
51,
39,
-15,
-16,
-58,
83,
7,
-46,
-15,
24,
-54,
47,
-51,
37,
-43,
31,
-65,
-31,
-22,
-6,
45,
16,
-34,
-46,
43,
47,
45,
51,
-50,
6,
-45,
61,
-1,
-86,
-68,
49,
-42,
-13,
3,
37,
-55,
-9,
-51,
39,
-80,
-80,
12,
-41,
17,
-34,
29,
-53,
-46,
76,
55,
-44,
-66,
-53,
56,
46,
74,
69,
-7,
-24,
1,
25,
66,
89,
51,
49,
35,
-10,
55,
68,
-34,
23,
-28,
-59,
-23,
75,
-73,
32,
76,
89,
-48,
-28,
-28,
1,
17,
-60,
0,
40,
46,
17,
2,
68,
53,
-32,
23,
17,
41,
-26,
3,
11,
4,
-50,
10,
1,
45,
45,
-34,
-53,
54,
34,
-64,
-30,
68,
21,
-6,
-27,
26,
50,
-42,
22,
-64,
18,
6,
37,
-40,
24,
-96,
-48,
-51,
-33,
-73,
31,
52,
10,
6,
-5,
56,
-71,
24,
22,
-2,
37,
-11,
-20,
40,
21,
-15,
15,
64,
28,
66,
39,
-30,
46,
8,
-50,
-27,
54,
-50,
45,
33,
-36,
59,
42,
87,
25,
68,
5,
-36,
-58,
-28,
6,
-62,
46,
-42,
62,
2,
87,
-56,
-34,
36,
-43,
-81,
58,
-43,
-30,
-2,
49,
-24,
49,
82,
-3,
38,
83,
34,
72,
31,
-33,
55,
-53,
-45,
29,
3,
47,
-26,
46,
-20,
67,
21,
-14,
5,
13,
7,
-36,
-44,
16,
14,
-47,
15,
-72,
-32,
2,
47,
13,
-43,
27,
37,
57,
-4,
-4,
-69,
10,
-69,
-61,
49,
1,
24,
-37,
47,
38,
19,
-55,
-97,
24,
-42,
44,
25,
1,
-58,
9,
3,
-15,
-43,
1,
-71,
-2,
-73,
31,
42,
22,
46,
-67,
42,
44,
-14,
23,
62,
71,
77,
-49,
10,
-27,
15,
-3,
-15,
-24,
-33,
61,
-5,
67,
-5,
22,
-48,
-43,
82,
38,
67,
-41,
-19,
72,
-6,
32,
-6,
57,
-17,
38,
26,
14,
18,
15,
-8,
-10,
15,
7,
-53,
-19,
63,
66,
41,
-5,
-43,
-47,
23,
-10,
3,
-22,
12,
4,
-34,
19,
10,
-20,
7,
-29,
59,
-38,
40,
-37,
42,
13,
50,
62,
4,
18,
12,
-38,
-15,
-14,
-40,
-68,
-52,
-11,
-73,
32,
-38,
-68,
-8,
-2,
14,
37,
-68,
71,
-32,
3,
-83,
-12,
33,
32,
-71,
-33,
1,
-45,
-59,
30,
43,
-46,
9,
17,
-4,
-87,
29,
-19,
28,
-59,
-18,
88,
-14,
-42,
-69,
-76,
13,
-46,
-95,
48,
-12,
1,
-22,
-31,
18,
-56,
47,
-85,
37,
-88,
-15,
-62,
-4,
6,
61,
16,
-61,
-75,
-15,
57,
-13,
-75,
5,
-52,
-19,
66,
-40,
-64,
-13,
-18,
70,
-11,
-16,
-68,
-59,
-36,
-48,
34,
-29,
-17,
29,
24,
14,
22,
-56,
-49,
-37,
-14,
32,
19,
-64,
20,
60,
50,
54,
26,
1,
45,
-11,
34,
24,
-54,
87,
-3,
-28,
-72,
-45,
51,
-3,
-67,
-30,
-23,
-8,
5,
39,
-38,
-78,
-11,
59,
23,
56,
43,
-42,
44,
-29,
29,
21,
-46,
-56,
-57,
-41,
-57,
9,
-77,
-14,
-10,
-37,
42,
9,
74,
18,
-19,
-16,
39,
-49,
35,
-70,
55,
60,
39,
42,
81,
9,
-11,
34,
-9,
72,
68,
62,
1,
-8,
39,
22,
-70,
37,
23,
26,
-22,
24,
45,
-25,
59,
6,
69,
68,
32,
-69,
-39,
26,
82,
82,
-18,
-57,
9,
36,
23,
-29,
-62,
3,
-30,
68,
36,
-53,
45,
-40,
77,
15,
55,
56,
31,
-13,
20,
-32,
-7,
45,
-39,
47,
-49,
34,
-51,
5,
35,
-14,
-1,
-23,
-3,
8,
28,
-45,
-48,
-44,
27,
33,
-13,
-11,
-24,
42,
54,
71,
14,
21,
50,
-3,
-54,
26,
-25,
-79,
-20,
-12,
47,
39,
62,
56,
68,
-63,
-76,
-49,
-61,
-31,
40,
-45,
-42,
-54,
-45,
-29,
-14,
-16,
10,
-3,
25,
-97,
-30,
-16,
-63,
59,
-34,
68,
-1,
40,
18,
-35,
-13,
37,
53,
-11,
9,
2,
21,
67,
60,
62,
57,
-2,
66,
56,
7,
-29,
-4,
-24,
54,
44,
56,
-69,
-79,
19,
54,
-68,
-47,
42,
83,
80,
56,
26,
66,
54,
-34,
-79,
-6,
32,
27,
-17,
-5,
118,
15,
58,
88,
-32,
-55,
-11,
-40,
34,
-61,
-9,
15,
95,
41,
-8,
-39,
-61,
-76,
-89,
53,
18,
17,
-26,
-25,
75,
-20,
-58,
-57,
-3,
47,
42,
-34,
64,
-22,
40,
17,
-46,
43,
-48,
64,
24,
23,
-16,
32,
20,
-12,
19,
-45,
23,
-7,
-62,
-77,
44,
-31,
83,
103,
-26,
34,
31,
-92,
71,
-20,
-60,
39,
18,
-45,
57,
-44,
69,
-57,
-40,
-7,
17,
-12,
-14,
-53,
-3,
40,
-23,
43,
28,
26,
-41,
14,
-38,
46,
40,
34,
-18,
51,
-48,
-18,
8,
66,
-22,
-27,
-52,
-9,
11,
13,
-25,
9,
4,
-62,
43,
-37,
-62,
23,
24,
29,
-18,
-16,
28,
-42,
58,
46,
46,
47,
42,
-37,
-30,
63,
47,
20,
30,
-46,
-36,
33,
30,
51,
22,
-48,
38,
24,
-49,
50,
-61,
-73,
44,
24,
61,
-15,
-69,
-38,
-80,
-23,
-50,
-21,
-68,
40,
39,
-56,
28,
44,
-49,
9,
29,
46,
-27,
6,
54,
-42,
-64,
-90,
33,
9,
46,
-40,
15,
-35,
14,
19,
33,
3,
15,
-88,
-27,
-48,
-15,
44,
29,
9,
-15,
-52,
-40,
-27,
50,
11,
44,
53,
46,
40,
18,
29,
66,
13,
-2,
-50,
20,
-7,
-26,
58,
13,
56,
66,
-57,
-62,
-13,
28,
12,
3,
-19,
-50,
39,
-30,
-38,
-62,
63,
-74,
-58,
-32,
-69,
-65,
24,
30,
-14,
-64,
-36,
39,
-55,
-35,
-58,
53,
-4,
26,
19,
-58,
61,
10,
-2,
-61,
45,
-8,
8,
39,
-10,
-22,
-52,
24,
-20,
36,
-5,
8,
35,
-74,
54,
25,
-13,
25,
66;
