memory_initialization_radix=10;
memory_initialization_vector=
-42,
13,
-35,
-106,
53,
13,
66,
48,
-44,
-42,
52,
-94,
66,
59,
-24,
98,
-73,
-35,
-43,
35,
88,
-114,
85,
-114,
-35,
120,
-107,
-11,
-66,
52,
-11,
-78,
106,
71,
-105,
-120,
-47,
-99,
12,
-77,
-127,
97,
19,
-66,
19,
19,
101,
87,
-20,
86,
66,
-32,
-4,
123,
38,
-46,
-97,
4,
-75,
41,
4,
-32,
-105,
-33,
-86,
-37,
25,
-73,
12,
116,
65,
-121,
-114,
94,
-27,
-68,
-88,
-99,
-120,
-120,
-86,
11,
80,
123,
-32,
-6,
66,
-57,
100,
2,
2,
64,
8,
-28,
-32,
-89,
-115,
-102,
-62,
63,
17,
24,
-16,
-48,
15,
35,
59,
66,
-90,
-10,
-72,
95,
50,
97,
-10,
-95,
-68,
-72,
64,
28,
89,
-19,
-61,
-31,
-101,
-65,
-36,
50,
64,
-62,
84,
118,
-25,
127,
-117,
-117,
43,
-115,
108,
43,
-90,
-123,
24,
-52,
-38,
8,
15,
-118,
68,
49,
-119,
-126,
28,
79,
90,
-75,
-115,
-37,
71,
33,
3,
16,
-14,
49,
98,
-81,
-83,
105,
-17,
62,
116,
18,
-34,
22,
-59,
-103,
-59,
10,
-6,
62,
-41,
60,
43,
67,
-4,
-58,
-60,
1,
-78,
-4,
-108,
70,
-33,
52,
-42,
76,
-71,
8,
47,
39,
-55,
-119,
73,
-97,
57,
21,
116,
21,
13,
-80,
20,
12,
19,
4,
-22,
3,
-58,
64,
-88,
121,
99,
-2,
-6,
-123,
6,
55,
109,
111,
9,
99,
107,
100,
-79,
-5,
10,
-111,
87,
107,
-56,
-11,
-3,
113,
-36,
44,
22,
-98,
-11,
78,
89,
120,
36,
-39,
61,
57,
-70,
21,
64,
-36,
49,
75,
83,
111,
98,
-37,
-15,
17,
-13,
126,
108,
13,
88,
-48,
110,
47,
110,
-22,
8,
46,
-41,
116,
9,
-32,
-71,
-22,
-24,
-93,
111,
125,
-86,
19,
-45,
47,
-2,
81,
89,
-65,
104,
-75,
68,
111,
-60,
46,
97,
-47,
-90,
-58,
36,
-11,
93,
34,
-92,
27,
36,
55,
27,
16,
18,
28,
117,
-24,
44,
11,
119,
90,
-120,
3,
-87,
-48,
-54,
-98,
122,
7,
35,
-95,
-97,
112,
67,
-123,
-66,
85,
64,
-27,
-60,
-118,
-116,
15,
-108,
29,
23,
-90,
55,
-118,
11,
125,
79,
29,
18,
92,
101,
77,
15,
24,
13,
-117,
-17,
22,
-86,
-7,
-19,
-100,
58,
35,
84,
126,
12,
14,
54,
-82,
-79,
-76,
90,
91,
120,
-113,
-69,
90,
-80,
65,
-11,
-62,
-63,
-111,
-101,
71,
-115,
25,
-120,
-110,
-38,
78,
-55,
41,
36,
103,
-9,
51,
-79,
-20,
-60,
-34,
-21,
-63,
-124,
62,
97,
25,
-34,
-22,
115,
-34,
84,
-55,
15,
40,
-66,
-122,
-6,
99,
-122,
19,
114,
119,
38,
48,
68,
-60,
-72,
4,
-5,
-62,
-29,
57,
74,
112,
31,
26,
-44,
38,
-122,
6,
126,
-96,
-29,
-17,
96,
-72,
-75,
3,
-72,
-55,
-5,
-39,
50,
88,
24,
-54,
50,
-64,
-91,
-124,
14,
3,
-108,
86,
-56,
-96,
93,
-6,
8,
72,
2,
-96,
-81,
17,
-11,
-101,
-113,
10,
54,
-49,
89,
42,
-122,
22,
92,
-81,
58,
111,
23,
-103,
-96,
11,
-9,
111,
-47,
38,
-49,
-108,
70,
33,
42,
85,
75,
14,
-86,
-28,
-5,
40,
64,
10,
-114,
54,
35,
55,
96,
-52,
102,
-76,
-15,
113,
-71,
62,
52,
-28,
-4,
-109,
6,
104,
94,
41,
-64,
113,
66,
-87,
-40,
-36,
75,
30,
108,
-60,
115,
58,
-57,
107,
-9,
-71,
-51,
114,
105,
-94,
37,
-2,
29,
-26,
93,
-116,
-66,
108,
-53,
-98,
56,
-79,
-19,
-101,
79,
-59,
-99,
-24,
-86,
26,
3,
16,
22,
-32,
-2,
4,
70,
100,
-48,
-8,
97,
103,
74,
-103,
14,
7,
-97,
126,
-121,
79,
-50,
125,
31,
-26,
-2,
-22,
127,
29,
121,
108,
58,
-83,
120,
92,
-46,
-60,
-39,
66,
14,
38,
-87,
-87,
-19,
120,
114,
-81,
57,
55,
-75,
-57,
-114,
62,
34,
36,
97,
-75,
16,
-29,
38,
125,
-107,
108,
36,
-86,
57,
-25,
-88,
-49,
70,
-86,
100,
38,
-28,
106,
3,
85,
48,
-63,
32,
-5,
80,
20,
-74,
120,
-73,
97,
31,
55,
-94,
-5,
-62,
-71,
-91,
-56,
93,
-125,
-101,
-119,
-44,
48,
-127,
-83,
53,
14,
92,
-83,
85,
-108,
-72,
113,
50,
-33,
109,
54,
-97,
-54,
-16,
51,
-93,
-20,
65,
-17,
4,
-42,
48,
-87,
37,
16,
116,
13,
-22,
9,
35,
-73,
14,
6,
-97,
-126,
123,
101,
-38,
-51,
-66,
13,
-63,
-104,
85,
83,
-96,
60,
59,
-48,
-54,
27,
-41,
102,
-9,
20,
110,
55,
86,
-118,
90,
3,
-52,
-64,
-6,
95,
41,
-9,
17,
117,
-117,
-15,
52,
-83,
-36,
-119,
45,
6,
-4,
-100,
-89,
-56,
90,
54,
120,
-52,
-4,
-18,
-59,
-99,
-49,
43,
-37,
-95,
-44,
125,
97,
-64,
-120,
-47,
79,
17,
-125,
72,
16,
-99,
20,
-122,
111,
34,
-23,
-74,
97,
96,
-127,
-66,
69,
54,
111,
89,
5,
-66,
-9,
-98,
-115,
-100,
37,
-84,
8,
-70,
123,
52,
-97,
-7,
88,
113,
-36,
-103,
38,
25,
-13,
-37,
38,
-120,
-36,
43,
-124,
36,
-60,
32,
75,
39,
58,
16,
110,
80,
-39,
-107,
6,
72,
-106,
-111,
60,
-53,
42,
-16,
-33,
4,
48,
57,
118,
86,
-21,
-69,
116,
-17,
100,
-27,
-114,
-41,
71,
-69,
-96,
-89,
89,
-106,
-123,
-16,
42,
-99,
24,
88,
19,
-80,
-116,
-123,
35,
107,
7,
-19,
-11,
118,
-31,
52,
18,
106,
-65,
64,
110,
51,
-93,
31,
-86,
1,
63,
117,
-6,
5,
73,
98,
-1,
-17,
63,
-116,
-71,
-119,
-52,
121,
-101,
28,
-66,
103,
23,
-55,
88,
-74,
25,
44,
69,
58,
50,
-40,
-38,
-78,
-27,
23,
-59,
47,
-105,
17,
18,
71,
62,
75,
118,
-100,
-5,
72,
102,
38,
-55,
-31,
-33,
72,
-39,
10,
-66,
-46,
-52,
-22,
-67,
-33,
-4,
72,
51,
28,
111,
38,
13,
-80,
-89,
-2,
-65,
19,
-107,
80,
82,
67,
76,
96,
-22,
66,
100,
-77,
51,
97,
-69,
-85,
9,
-120,
76,
104,
110,
96,
-116,
41,
-88,
-35,
77,
-50,
-49,
35,
63,
112,
1,
-66,
75,
4,
-35,
-79,
6,
-84,
22,
59,
-60,
-104,
-4,
-46,
-124,
-3,
13,
70,
-95,
85,
-7,
-72,
-19,
104,
-36,
-119,
1,
-83,
124,
-59,
-44,
-58,
42,
-109,
-30,
56,
59,
-84,
94,
25,
-66,
105,
-81,
96,
-58,
39,
-79,
51,
-6,
-60,
71,
-32,
-69,
28,
126,
33,
-45,
13,
-34,
96,
-61,
-78,
77,
67,
-75,
74,
-125,
90,
98,
20,
14,
15,
73,
-13,
7,
97,
-36,
82,
60,
-45,
-22,
-71,
63,
-77,
-24,
-122,
-125,
25,
21,
-25,
-80,
-20,
-28,
44,
79,
104,
-4,
57,
115,
46,
104,
125,
-47,
83,
-38,
5,
84,
-122,
69,
12,
-4,
-25,
11,
115,
107,
85,
55,
82,
-121,
-85,
104,
-41,
-12,
52,
-96,
-16,
76,
90,
-31,
-72,
-89,
-102,
-94,
21,
2,
-58,
-18,
8,
-60,
118,
-69,
21,
-112,
20,
-3,
-9,
-125,
122,
-5,
-85,
101,
-56,
85,
-11,
-26,
1,
-86,
-61,
51,
122,
1,
-109,
67,
-49,
18,
73,
94,
0,
39,
73,
-69,
57,
-101,
15,
-80,
23,
78,
-118,
1,
-93,
-101,
-3,
76,
10,
39,
32,
78,
-64,
124,
96,
120,
33,
-43,
66,
-33,
-12,
123,
-98,
-10,
-1,
-80,
93,
-94,
-47,
-99,
-50,
31,
75,
77,
111,
17,
103,
3,
66,
127,
-118,
-28,
-9,
-124,
87,
-43,
-33,
82,
56,
19,
-6,
68,
89;